<unk>	0
<s>	0
</s>	0
▁de	-3.30547
,	-3.31739
.	-3.62091
s	-3.74508
'	-4.01485
▁et	-4.10817
▁la	-4.15016
’	-4.19256
▁à	-4.37134
▁le	-4.4245
▁l	-4.45617
▁d	-4.50292
▁les	-4.55124
▁des	-4.65145
▁en	-4.73887
-	-4.92774
▁du	-4.96748
▁pour	-4.97968
▁un	-5.00845
▁que	-5.22395
▁une	-5.26948
e	-5.28493
▁sur	-5.30618
▁dans	-5.31041
▁est	-5.32482
▁vous	-5.39087
▁	-5.39706
▁qui	-5.48177
▁par	-5.52595
▁:	-5.52885
▁au	-5.58312
▁pas	-5.58318
▁(	-5.59613
▁a	-5.59653
▁plus	-5.74244
▁ou	-5.77381
▁avec	-5.79227
▁ce	-5.82357
est	-5.87315
▁ne	-5.96407
)	-5.9712
▁n	-6.00368
▁votre	-6.07103
...	-6.0806
▁Le	-6.0988
▁se	-6.10501
▁qu	-6.11133
▁s	-6.11625
▁sont	-6.12931
▁-	-6.13836
a	-6.1908
▁il	-6.20638
un	-6.24305
▁je	-6.24842
▁La	-6.2937
▁nous	-6.31499
▁son	-6.31744
r	-6.34045
es	-6.40749
▁aux	-6.4075
▁c	-6.41393
▁Les	-6.43365
il	-6.44649
▁«	-6.45616
▁L	-6.46575
▁tout	-6.55934
▁mais	-6.57121
une	-6.57776
▁!	-6.6384
▁site	-6.64069
▁Il	-6.6625
▁cette	-6.68898
:	-6.70931
▁bien	-6.71251
▁C	-6.72352
▁sa	-6.7261
▁En	-6.74556
ai	-6.75209
▁"	-6.75216
▁|	-6.76998
▁j	-6.77987
▁comme	-6.78655
on	-6.80678
▁faire	-6.835
er	-6.83701
▁fait	-6.83838
▁être	-6.8394
▁si	-6.86546
en	-6.88156
▁ses	-6.898
▁A	-6.90291
▁»	-6.90888
▁vos	-6.9092
▁?	-6.94109
▁notre	-6.94425
y	-6.95665
▁leur	-6.97038
nt	-6.98674
t	-6.99751
▁peut	-6.99883
/	-7.00355
h	-7.02196
▁on	-7.02507
ment	-7.03004
▁y	-7.03864
▁aussi	-7.04608
▁très	-7.0547
▁même	-7.05474
▁ont	-7.05746
é	-7.06157
▁Je	-7.07937
▁été	-7.07938
▁Pour	-7.08024
▁sans	-7.09063
▁tous	-7.11127
▁2	-7.14416
▁1	-7.1498
z	-7.15222
▁me	-7.16616
▁Vous	-7.17019
"	-7.18855
▁ces	-7.2122
▁m	-7.21339
).	-7.25157
▁nos	-7.2675
▁elle	-7.28125
▁J	-7.28501
▁3	-7.2915
▁deux	-7.30095
▁|--	-7.32147
▁S	-7.32622
▁lui	-7.32996
▁ans	-7.33597
▁Nous	-7.35548
▁entre	-7.36506
▁Ce	-7.36893
▁Si	-7.40236
▁temps	-7.41114
ant	-7.42133
©	-7.4316
▁vie	-7.45117
|	-7.45165
o	-7.45169
▁mon	-7.45386
▁2018	-7.46107
▁D	-7.47598
▁•	-7.4988
▁peu	-7.50525
▁Un	-7.51706
▁France	-7.52115
▁De	-7.52126
),	-7.53696
▁cookies	-7.53741
▁M	-7.54244
!	-7.54426
le	-7.55806
S	-7.55827
d	-7.56263
▁ainsi	-7.56675
▁encore	-7.56858
▁...	-7.57718
▁sous	-7.58286
in	-7.58791
▁Et	-7.59406
elle	-7.60026
▁où	-7.60208
▁non	-7.60269
c	-7.61065
▁monde	-7.6164
▁depuis	-7.62001
▁jour	-7.62223
;	-7.62934
▁tu	-7.62998
▁suis	-7.63125
▁donc	-7.63271
▁4	-7.63357
▁;	-7.64167
▁fois	-7.64912
▁ma	-7.6512
▁rencontre	-7.65405
m	-7.65529
▁/	-7.65765
▁toute	-7.6612
▁Une	-7.66999
▁cas	-7.67613
▁dont	-7.6799
▁toutes	-7.69279
à	-7.69604
com	-7.69715
▁ça	-7.70028
▁5	-7.71164
▁données	-7.72393
1	-7.72494
▁N	-7.72544
▁2017	-7.72892
▁avant	-7.73618
▁moins	-7.74013
utilisation	-7.74146
▁pouvez	-7.74538
être	-7.74691
▁également	-7.75349
▁mois	-7.75909
▁soit	-7.76198
C	-7.76286
▁–	-7.76566
A	-7.77126
▁après	-7.77671
▁contre	-7.78436
▁toujours	-7.79019
▁leurs	-7.79052
▁·	-7.79113
?	-7.79553
▁Mais	-7.79667
▁car	-7.80229
▁autres	-7.803
▁était	-7.80639
▁avoir	-7.8079
▁savoir	-7.81026
2	-7.81497
▁novembre	-7.81862
▁B	-7.81996
▁2016	-7.82168
l	-7.82191
▁quelques	-7.83486
▁sera	-7.8356
ait	-7.83841
▁Dans	-7.84549
▁10	-7.84782
▁2015	-7.84921
▁vers	-7.85134
i	-7.86025
n	-7.86707
▁bon	-7.87314
et	-7.87412
ons	-7.87846
▁alors	-7.88121
ez	-7.88193
▁va	-7.88693
de	-7.88876
▁On	-7.90437
▁,	-7.90468
ou	-7.90531
▁P	-7.91232
▁6	-7.91304
▁T	-7.91406
vous	-7.9164
fr	-7.92105
▁Elle	-7.92139
▁Paris	-7.92343
▁jours	-7.92475
▁2014	-7.92494
B	-7.92678
ur	-7.92842
▁Cette	-7.93522
▁prix	-7.93825
ci	-7.9398
▁grand	-7.95207
▁ligne	-7.9523
▁18	-7.95565
▁compte	-7.95582
▁cela	-7.96411
▁chaque	-7.97064
▁personnes	-7.97626
autres	-7.97686
▁produits	-7.9851
▁moi	-7.98815
▁afin	-7.99216
▁voir	-7.99243
▁avait	-7.99393
ent	-8.00066
ra	-8.00124
▁re	-8.00511
▁faut	-8.00701
▁chez	-8.01138
▁place	-8.01183
▁moment	-8.01419
Ã	-8.01537
▁travail	-8.01747
▁&	-8.01794
re	-8.01848
▁quand	-8.02162
eau	-8.03577
al	-8.03732
au	-8.03849
p	-8.04448
▁autre	-8.04633
▁maison	-8.04742
▁beaucoup	-8.04902
▁2013	-8.05386
▁peuvent	-8.06184
▁octobre	-8.06597
▁premier	-8.07081
▁septembre	-8.07115
▁F	-8.0722
▁janvier	-8.07253
▁juin	-8.07529
E	-8.07599
▁pays	-8.08339
▁petit	-8.0927
x	-8.09368
▁informations	-8.09408
▁droit	-8.09467
la	-8.09894
▁jusqu	-8.1022
L	-8.10275
▁plusieurs	-8.10503
√©	-8.10704
▁services	-8.10868
▁service	-8.10965
▁[	-8.11003
▁R	-8.11122
ne	-8.11358
▁mai	-8.11466
▁partie	-8.11751
▁ici	-8.12045
▁mes	-8.12246
▁ils	-8.12375
▁Ã	-8.1253
▁G	-8.12561
▁recherche	-8.12708
▁permet	-8.12715
▁nouvelle	-8.12939
▁avez	-8.1307
g	-8.13516
▁fin	-8.13719
▁doit	-8.14039
▁dit	-8.14465
▁20	-8.14968
▁Au	-8.15417
▁suite	-8.15607
T	-8.15662
P	-8.16439
▁t	-8.16506
▁déjà	-8.16741
▁nouveau	-8.16836
▁2012	-8.169
ce	-8.17521
▁décembre	-8.17801
▁15	-8.17844
▁grande	-8.17898
hui	-8.18084
▁.	-8.18175
▁7	-8.1825
D	-8.18262
it	-8.18293
▁mars	-8.18614
▁forum	-8.18875
ils	-8.19328
▁E	-8.1953
3	-8.19742
ont	-8.19796
an	-8.19919
▁lors	-8.20192
▁trop	-8.20404
▁8	-8.20696
▁cours	-8.20895
▁cet	-8.21235
f	-8.21465
F	-8.21844
▁qualité	-8.22293
ée	-8.23071
▁juillet	-8.23528
▁première	-8.2367
▁rien	-8.23902
▁dire	-8.24176
▁avons	-8.24261
▁part	-8.24712
▁ville	-8.25396
▁avril	-8.25459
▁là	-8.25898
▁puis	-8.25933
]	-8.26212
age	-8.26529
▁nom	-8.26769
▁femme	-8.27648
▁projet	-8.28041
▁jamais	-8.28255
▁enfants	-8.28522
▁12	-8.29349
▁in	-8.29361
▁ré	-8.29887
▁point	-8.29952
or	-8.30625
▁février	-8.31212
▁personne	-8.31543
▁lieu	-8.33991
▁e	-8.34065
ing	-8.34574
▁politique	-8.34671
▁»,	-8.34698
▁H	-8.34786
b	-8.34903
▁V	-8.35006
▁dé	-8.35046
▁trois	-8.35287
ie	-8.35498
H	-8.35907
▁bonne	-8.35945
▁août	-8.36059
▁partir	-8.36114
€	-8.36377
(	-8.36424
▁p	-8.36449
▁mal	-8.36568
▁dernier	-8.36654
les	-8.36718
▁prendre	-8.3679
▁demande	-8.3686
▁années	-8.36872
▁17	-8.37403
▁mise	-8.37457
▁celui	-8.37668
▁conditions	-8.37709
M	-8.37928
▁16	-8.38
était	-8.38189
▁ceux	-8.38298
▁mieux	-8.38376
▁Des	-8.38915
▁2011	-8.38998
▁gratuit	-8.39263
▁pouvoir	-8.39263
▁9	-8.39837
▁pendant	-8.40333
▁mettre	-8.40346
te	-8.40579
ation	-8.40706
▁ni	-8.4169
u	-8.41816
▁etc	-8.41842
▁page	-8.41842
▁ton	-8.42006
▁possible	-8.42077
▁groupe	-8.42081
▁14	-8.42141
▁comment	-8.42265
▁Par	-8.42418
▁nombre	-8.43334
▁produit	-8.43991
eur	-8.44068
▁Saint	-8.441
▁selon	-8.44153
▁19	-8.4453
▁30	-8.44859
▁trouver	-8.45623
V	-8.45952
aux	-8.46195
▁te	-8.46204
▁êtes	-8.46556
­	-8.46925
G	-8.47041
▁Tous	-8.47127
▁eu	-8.48001
▁acceptez	-8.48149
▁famille	-8.48241
▁propose	-8.4834
▁choix	-8.48446
▁souvent	-8.48644
▁porte	-8.48775
ch	-8.49355
▁société	-8.5039
▁vraiment	-8.50558
▁effet	-8.50613
▁question	-8.5065
us	-8.50854
▁niveau	-8.50926
6	-8.51795
▁I	-8.52026
▁reste	-8.52339
k	-8.52395
▁droits	-8.52398
▁besoin	-8.53153
v	-8.53321
▁jeu	-8.53466
°	-8.53571
at	-8.53619
▁petite	-8.53895
▁tant	-8.53994
▁2010	-8.54271
▁utiliser	-8.54625
▁sommes	-8.54813
▁seront	-8.54867
R	-8.54967
▁façon	-8.55285
▁K	-8.55409
▁certains	-8.55532
▁celle	-8.55622
és	-8.557
▁notamment	-8.55912
▁année	-8.56057
▁français	-8.56159
co	-8.56291
▁13	-8.56727
▁chose	-8.56816
▁exemple	-8.57123
▁Avec	-8.57524
▁11	-8.57725
▁semaine	-8.57844
▁navigation	-8.57969
▁système	-8.58541
is	-8.58578
▁femmes	-8.58835
autre	-8.5895
me	-8.58964
▁».	-8.58972
▁#	-8.59029
▁loi	-8.59278
N	-8.59769
▁grâce	-8.60591
▁cadre	-8.6063
▁surtout	-8.61467
▁photos	-8.61592
▁sécurité	-8.61625
▁Re	-8.61818
art	-8.61873
▁ci	-8.62015
▁sens	-8.62347
▁aujourd	-8.62431
4	-8.62487
▁Sa	-8.62498
▁coup	-8.62695
▁plan	-8.62801
7	-8.63162
▁internet	-8.63533
▁passe	-8.63801
▁rapport	-8.63893
00	-8.64012
▁+	-8.64037
▁Après	-8.64182
▁forme	-8.64342
▁À	-8.6435
▁Ces	-8.64353
▁h	-8.64418
▁manière	-8.64888
▁Jean	-8.65339
▁base	-8.65796
▁juste	-8.65814
able	-8.65884
ine	-8.6622
▁trouve	-8.66279
▁(1)	-8.66611
▁jeune	-8.67103
▁simple	-8.67438
ème	-8.67959
▁public	-8.67976
▁homme	-8.68466
▁santé	-8.68567
▁salle	-8.68839
▁livre	-8.68849
▁belle	-8.68859
▁heures	-8.69359
▁seulement	-8.69487
▁mis	-8.7004
▁24	-8.70412
el	-8.70732
▁Ils	-8.70834
▁vu	-8.70894
▁sites	-8.71061
▁fonction	-8.71071
▁nombreux	-8.7109
▁blog	-8.71141
▁expérience	-8.71167
▁seul	-8.71406
avoir	-8.7145
▁vente	-8.71671
▁Du	-8.7175
▁formation	-8.71868
▁parce	-8.71993
▁font	-8.72011
30	-8.72016
▁25	-8.72566
▁type	-8.72735
▁découvrir	-8.7274
ais	-8.72793
▁offre	-8.7299
▁nouvelles	-8.73091
▁développement	-8.73164
▁vue	-8.73218
▁“	-8.73224
aient	-8.73408
▁an	-8.73409
▁%	-8.73428
▁frais	-8.73728
▁ta	-8.73886
▁début	-8.74053
▁film	-8.74081
▁adresse	-8.74121
▁côté	-8.74213
▁rencontres	-8.74319
▁Merci	-8.74422
▁sujet	-8.74792
▁passer	-8.75029
O	-8.75044
▁membres	-8.75081
▁Tout	-8.75266
K	-8.7535
&	-8.75457
▁r	-8.75699
▁dès	-8.75972
▁lien	-8.75999
▁centre	-8.76204
▁face	-8.76427
▁meilleur	-8.76604
▁haut	-8.76831
▁carte	-8.76888
▁raison	-8.76927
▁W	-8.77133
année	-8.77171
▁2009	-8.77352
que	-8.77463
▁Page	-8.77561
j	-8.78154
▁long	-8.78724
▁vidéo	-8.78762
▁donner	-8.78812
▁concernant	-8.78816
▁web	-8.79061
",	-8.79465
▁traitement	-8.7949
▁mesure	-8.79497
▁assez	-8.79525
w	-8.79545
▁travers	-8.79551
▁mode	-8.79576
://	-8.79598
J	-8.79715
▁quoi	-8.79893
▁retour	-8.80718
5	-8.80974
▁près	-8.81035
▁cuisine	-8.81329
▁propos	-8.8142
▁O	-8.81443
▁titre	-8.81615
▁corps	-8.81676
▁aucun	-8.81784
▁marque	-8.81785
ma	-8.81791
même	-8.82362
»	-8.82364
Le	-8.8247
▁devant	-8.82609
▁main	-8.82707
▁gestion	-8.82747
▁tête	-8.82949
▁commande	-8.82971
▁parfois	-8.83113
▁quelque	-8.83236
▁plaisir	-8.83278
▁différents	-8.83301
▁pu	-8.83728
▁général	-8.84043
▁photo	-8.8445
▁tour	-8.84534
▁pris	-8.84751
▁000	-8.84856
▁programme	-8.85108
▁Z	-8.85229
histoire	-8.85254
▁peux	-8.85598
▁jeunes	-8.86217
▁Sur	-8.86641
I	-8.86725
▁contenu	-8.86913
▁problème	-8.87223
W	-8.87281
▁gens	-8.87472
▁maintenant	-8.87683
▁serait	-8.87716
▁autour	-8.88096
▁donne	-8.88114
▁bois	-8.88164
▁région	-8.88195
té	-8.88249
▁bas	-8.88386
▁Notre	-8.88561
▁pré	-8.88658
▁b	-8.89176
▁jeux	-8.89598
ter	-8.898
▁choses	-8.89834
ré	-8.89994
▁eux	-8.90227
▁hommes	-8.90268
".	-8.90419
▁lorsque	-8.90535
▁21	-8.91074
▁marché	-8.91085
ées	-8.91225
▁Votre	-8.91269
▁avis	-8.91295
▁protection	-8.91564
▁DE	-8.91619
Les	-8.91627
▁journée	-8.91643
▁article	-8.92029
na	-8.92087
▁but	-8.92174
agit	-8.92744
ier	-8.92916
▁nouveaux	-8.93253
▁compris	-8.93317
▁utilise	-8.93535
▁dernière	-8.93655
▁liste	-8.93806
▁nature	-8.94301
▁Car	-8.94676
▁travaux	-8.94701
▁g	-8.94857
▁questions	-8.94879
ensemble	-8.94922
▁générales	-8.94936
▁date	-8.95094
▁€	-8.95127
▁*	-8.95168
as	-8.95236
ex	-8.95642
article	-8.95733
ar	-8.95792
▁clients	-8.95804
▁cher	-8.95823
▁elles	-8.95846
▁création	-8.95887
▁navigateur	-8.95935
▁mot	-8.9599
▁entreprises	-8.96215
▁articles	-8.96319
▁messages	-8.96439
ique	-8.96446
ir	-8.96491
▁Comme	-8.96683
▁mort	-8.96728
▁propre	-8.96788
▁ayant	-8.96806
▁passé	-8.96906
▁situation	-8.96916
▁2008	-8.96941
▁pense	-8.97396
▁présente	-8.97532
end	-8.97654
▁É	-8.97671
▁musique	-8.97723
▁[...]	-8.98101
▁plutôt	-8.98325
accès	-8.9865
man	-8.98783
▁Alors	-8.98801
▁seule	-8.98807
information	-8.99201
ic	-8.9929
La	-8.99369
▁meilleure	-8.99449
▁petits	-8.99491
urs	-8.99621
occasion	-8.99658
▁Ma	-8.9993
▁couleur	-9.0008
▁proposer	-9.00152
▁minutes	-9.00251
Y	-9.00262
du	-9.0028
▁50	-9.00406
▁f	-9.00524
▁Son	-9.00642
▁>	-9.00669
▁pratique	-9.0085
▁créer	-9.00937
▁plein	-9.01068
▁Mon	-9.01191
U	-9.0126
▁aucune	-9.013
▁version	-9.01509
▁réseau	-9.01739
iste	-9.0175
tte	-9.01774
ta	-9.01897
▁livraison	-9.01944
auteur	-9.02029
▁fille	-9.02095
▁soir	-9.02144
▁pourquoi	-9.02148
▁22	-9.02155
▁message	-9.02451
ul	-9.02736
ement	-9.02892
▁pourrait	-9.02925
▁semble	-9.02931
aide	-9.03031
to	-9.03044
▁personnelles	-9.03401
▁sais	-9.03708
▁vient	-9.03708
▁présent	-9.03762
elles	-9.04451
▁fut	-9.04499
▁loin	-9.04577
▁auprès	-9.04788
air	-9.04897
tu	-9.0498
avais	-9.05021
▁cause	-9.0516
▁Plus	-9.05209
▁Internet	-9.05371
▁charge	-9.05391
am	-9.05428
▁points	-9.05511
▁Dieu	-9.05553
▁série	-9.05658
▁matière	-9.05955
▁taille	-9.06081
▁domaine	-9.06162
▁rendre	-9.06179
▁voyage	-9.06181
▁co	-9.06205
▁visite	-9.06232
▁rue	-9.0625
TM	-9.06283
▁personnel	-9.06374
▁française	-9.06434
▁)	-9.06766
▁simplement	-9.06856
dé	-9.06867
_	-9.07043
▁étaient	-9.07218
▁vrai	-9.07219
▁nuit	-9.07326
▁merci	-9.07368
▁parler	-9.07432
▁grands	-9.07511
ad	-9.07632
ner	-9.07681
▁veut	-9.07696
▁différentes	-9.07877
ité	-9.07938
eurs	-9.07987
▁saison	-9.08016
▁prise	-9.08071
▁partenaires	-9.08075
isme	-9.08218
▁Web	-9.08638
▁entreprise	-9.08689
▁chambre	-9.08921
▁lire	-9.09099
▁offres	-9.09147
▁devez	-9.0915
▁vivre	-9.09191
▁pro	-9.09214
▁certaines	-9.09371
▁aller	-9.09376
▁relation	-9.09381
▁(2)	-9.0944
id	-9.09734
▁président	-9.10122
▁recevoir	-9.10332
▁contacter	-9.10448
use	-9.1059
▁Depuis	-9.10678
rie	-9.10714
▁risque	-9.11328
▁contact	-9.11356
▁é	-9.11359
▁professionnels	-9.1143
▁gros	-9.11572
▁Politique	-9.11579
▁dis	-9.11635
ca	-9.11835
▁période	-9.11935
▁moyen	-9.11957
▁vacances	-9.12004
▁prend	-9.1206
▁doute	-9.12102
▁code	-9.12563
▁beau	-9.12691
▁Pas	-9.12742
▁gouvernement	-9.12775
▁100	-9.12991
▁souhaitez	-9.13119
ard	-9.13176
▁directement	-9.13183
▁23	-9.13191
▁ensemble	-9.13263
8	-9.13322
ia	-9.13464
▁Site	-9.13714
▁étant	-9.13894
▁numéro	-9.14107
im	-9.14155
▁millions	-9.14222
▁nombreuses	-9.14302
entreprise	-9.14422
▁quelqu	-9.14422
▁utilisation	-9.14471
▁important	-9.14482
os	-9.14486
▁particulier	-9.14716
▁poursuivant	-9.14744
▁valeur	-9.15063
▁X	-9.15148
▁amis	-9.15202
▁cœur	-9.1532
▁histoire	-9.15413
▁quatre	-9.15468
▁fort	-9.15484
▁siècle	-9.15534
▁rapidement	-9.15654
▁sein	-9.15679
ed	-9.15704
0	-9.1572
▁activités	-9.15739
”	-9.15804
▁toi	-9.16045
▁fond	-9.16066
▁réaliser	-9.16072
ler	-9.16187
▁Plan	-9.1624
▁doivent	-9.16333
▁Tu	-9.16379
ailleurs	-9.16549
▁terre	-9.16579
▁Cela	-9.16691
▁texte	-9.16718
▁client	-9.1672
▁Pro	-9.16763
▁enfant	-9.16783
▁téléphone	-9.16798
▁résultats	-9.16946
▁Comment	-9.1713
ure	-9.17247
aime	-9.17258
▁autant	-9.17376
▁met	-9.17433
▁sociaux	-9.17494
▁équipe	-9.17519
▁ensuite	-9.17609
▁Que	-9.1769
▁via	-9.17691
ti	-9.17945
je	-9.17969
▁force	-9.18127
▁disponible	-9.1813
▁technique	-9.18246
▁jardin	-9.18298
▁Se	-9.18309
▁yeux	-9.18324
homme	-9.18355
▁laquelle	-9.18426
▁projets	-9.18454
▁sûr	-9.18546
▁responsable	-9.18573
if	-9.18621
origine	-9.18694
▁communication	-9.18717
▁40	-9.18756
▁aura	-9.1884
▁nécessaire	-9.19013
▁thème	-9.19019
adresse	-9.19059
équipe	-9.19153
▁production	-9.19286
▁con	-9.19507
▁unique	-9.1964
▁2007	-9.19658
▁tard	-9.19756
▁mer	-9.1992
ux	-9.20103
▁U	-9.20205
▁vite	-9.20424
▁durée	-9.2043
▁Forum	-9.206
▁guerre	-9.20709
▁semaines	-9.20776
▁anti	-9.20932
apos	-9.21004
▁vais	-9.21161
ge	-9.21166
▁modèle	-9.21222
▁terme	-9.21246
▁ai	-9.21419
▁secteur	-9.21507
X	-9.21574
▁Con	-9.21674
con	-9.21809
▁contrôle	-9.21931
▁chacun	-9.22032
▁conseils	-9.2208
▁permettent	-9.22203
▁samedi	-9.2227
be	-9.22627
▁x	-9.22754
▁Conditions	-9.22768
▁Conseil	-9.22859
▁Grand	-9.22861
▁In	-9.23
ot	-9.23047
▁donné	-9.23142
9	-9.2324
▁noir	-9.23276
▁style	-9.23284
▁Dé	-9.23289
▁permettre	-9.23391
ale	-9.2343
▁facile	-9.2346
mail	-9.23532
▁rapide	-9.23571
par	-9.23917
▁utilisateurs	-9.23983
▁choisir	-9.24
â	-9.24035
▁aider	-9.24057
▁Ne	-9.24132
di	-9.24206
aire	-9.24215
▁ex	-9.24272
▁genre	-9.24409
▁comprendre	-9.24415
ante	-9.2465
um	-9.24707
▁techniques	-9.24817
▁quel	-9.24879
nous	-9.24928
▁vont	-9.24957
▁images	-9.24978
▁mots	-9.25008
▁professionnelle	-9.2518
▁nationale	-9.25518
▁Bien	-9.25595
▁fil	-9.25642
▁uniquement	-9.25651
go	-9.25792
per	-9.25955
tre	-9.26276
ut	-9.26499
É	-9.26549
▁ca	-9.26588
▁voiture	-9.26638
ance	-9.26758
Unis	-9.26978
emploi	-9.27089
▁gamme	-9.27107
ion	-9.27211
amour	-9.27212
▁besoins	-9.2722
▁laisser	-9.27255
▁26	-9.2743
▁aurait	-9.27829
ton	-9.27853
▁professionnel	-9.27928
▁St	-9.27938
▁classe	-9.28059
▁père	-9.28327
▁présence	-9.28368
▁matin	-9.2841
▁pièces	-9.28433
qu	-9.2851
ly	-9.28605
▁sexe	-9.28665
▁permettant	-9.28704
ry	-9.28779
▁large	-9.29067
eux	-9.29131
▁construction	-9.29187
ront	-9.29189
ère	-9.29318
▁cm	-9.29365
▁conseil	-9.29402
▁0	-9.29622
▁super	-9.29694
abord	-9.29763
th	-9.2996
▁parmi	-9.30105
▁parents	-9.30148
▁enfin	-9.30158
▁tel	-9.30214
▁libre	-9.30283
ro	-9.30397
▁possibilité	-9.30485
▁coeur	-9.30616
▁mère	-9.30864
▁dés	-9.30879
▁créé	-9.30927
▁©	-9.30975
▁état	-9.30976
▁regard	-9.31011
▁28	-9.31103
▁dimanche	-9.31255
▁confidentialité	-9.31472
▁répondre	-9.3151
▁partager	-9.31631
▁couleurs	-9.31733
▁27	-9.31778
▁textes	-9.31977
ri	-9.32009
▁Nos	-9.32009
après	-9.32067
▁éléments	-9.32101
▁sélection	-9.32161
▁blanc	-9.32481
▁profiter	-9.32503
▁(3)	-9.32574
li	-9.32582
▁culture	-9.32697
▁sortie	-9.32752
▁suivi	-9.32768
▁soient	-9.32853
▁sol	-9.32919
▁km	-9.32955
▁rôle	-9.3332
▁route	-9.33346
ins	-9.33595
lo	-9.33712
▁Y	-9.33776
▁Qu	-9.339
▁pourrez	-9.33918
▁obtenir	-9.34082
▁solution	-9.34217
▁Ré	-9.34227
▁sociale	-9.34273
▁changer	-9.34341
▁demander	-9.34475
pe	-9.34492
▁suivre	-9.34531
▁social	-9.3455
▁jouer	-9.34647
▁Lire	-9.34649
isation	-9.3469
▁table	-9.34715
▁The	-9.34846
action	-9.34879
▁mariage	-9.34911
▁Quand	-9.35005
▁disponibles	-9.35254
heure	-9.35289
▁pages	-9.35309
ac	-9.35373
dessous	-9.35393
▁Co	-9.35482
▁départ	-9.35551
argent	-9.35583
▁of	-9.35672
www	-9.35701
up	-9.35873
▁grandes	-9.36071
▁commentaires	-9.36135
▁écrit	-9.36172
▁fonctionnement	-9.3622
▁quotidien	-9.36464
▁lecture	-9.36593
ateur	-9.36595
achat	-9.36696
▁réalité	-9.36697
▁Maison	-9.36834
▁disposition	-9.36921
▁presse	-9.36985
▁séjour	-9.37016
▁confiance	-9.37144
▁chef	-9.37229
▁Voici	-9.37458
▁envie	-9.37573
▁économique	-9.37604
▁vendredi	-9.37609
▁venir	-9.37654
▁fais	-9.37673
▁Sélectionner	-9.37705
▁scène	-9.37803
▁hors	-9.37849
do	-9.37921
▁Toutes	-9.37934
▁milieu	-9.38015
▁existe	-9.38193
▁bout	-9.38196
▁réseaux	-9.38531
▁Bon	-9.38547
▁Sud	-9.38627
@	-9.3876
▁signe	-9.38896
▁dernières	-9.38926
▁email	-9.39128
▁lequel	-9.39373
▁meilleurs	-9.39392
qui	-9.39415
lé	-9.39512
▁réponse	-9.39519
▁deuxième	-9.39682
▁direction	-9.39716
▁celles	-9.39791
%	-9.39958
né	-9.39971
▁pied	-9.39978
▁commune	-9.39991
▁gauche	-9.40148
▁petites	-9.4021
che	-9.40226
▁rendez	-9.40386
▁oui	-9.40557
▁générale	-9.40595
▁annonce	-9.40616
▁connaissance	-9.40926
▁]	-9.411
▁presque	-9.41124
été	-9.41139
▁durant	-9.41389
▁rouge	-9.41455
Z	-9.41487
da	-9.41551
▁consulter	-9.41595
▁31	-9.41644
ga	-9.41659
▁retrouver	-9.41689
▁communauté	-9.41827
▁Nord	-9.4192
▁Al	-9.41943
▁difficile	-9.41995
▁ministre	-9.42032
▁sortir	-9.42083
▁complet	-9.42294
▁image	-9.42339
▁euros	-9.42378
▁29	-9.42428
▁longtemps	-9.42451
▁caractère	-9.42489
▁Bonjour	-9.42536
▁taux	-9.42591
▁plupart	-9.42596
école	-9.42601
▁inter	-9.42852
▁bureau	-9.42958
▁parle	-9.43035
▁espace	-9.43146
tique	-9.43217
10	-9.43269
▁vidéos	-9.43391
▁problèmes	-9.4342
▁bord	-9.43922
▁soleil	-9.44031
▁haute	-9.44145
▁peau	-9.4418
▁Pierre	-9.44249
rait	-9.44589
▁trouverez	-9.44632
▁permis	-9.44657
énergie	-9.4467
avait	-9.44685
▁http	-9.44748
▁paiement	-9.4476
▁accès	-9.44818
▁aide	-9.44905
▁garde	-9.44985
▁manque	-9.45
▁Ca	-9.45022
ville	-9.45424
▁pièce	-9.45503
▁pourra	-9.45508
▁sait	-9.45565
▁national	-9.45565
▁réserve	-9.45573
▁Marie	-9.45574
accord	-9.45589
▁formulaire	-9.45632
▁double	-9.45663
50	-9.45724
istes	-9.45852
▁Or	-9.46108
▁lit	-9.46123
▁utilisé	-9.46136
informations	-9.46202
▁source	-9.46208
ence	-9.4621
▁facilement	-9.46293
▁proche	-9.46322
▁derniers	-9.46423
▁langue	-9.46522
▁partage	-9.46686
▁Blog	-9.46726
▁terrain	-9.46979
▁bar	-9.46988
image	-9.47014
ici	-9.47081
▁situé	-9.47161
▁An	-9.47218
ni	-9.47268
▁études	-9.47834
▁trouvé	-9.47884
▁train	-9.47913
▁Ar	-9.47939
▁offrir	-9.48036
▁faites	-9.48105
▁connaître	-9.48119
ol	-9.48127
▁fils	-9.48203
▁60	-9.48337
▁environ	-9.48761
entre	-9.4879
▁certain	-9.48832
▁bons	-9.48888
▁suivant	-9.49198
▁mouvement	-9.49224
▁contrat	-9.49356
expérience	-9.4936
▁salon	-9.49461
ve	-9.49651
▁Ainsi	-9.49661
▁design	-9.49723
▁matériel	-9.49804
▁Centre	-9.49842
objet	-9.49881
▁devenir	-9.50204
▁club	-9.50252
association	-9.50276
▁zone	-9.50298
▁port	-9.50305
▁améliorer	-9.50315
▁commentaire	-9.50428
ver	-9.50493
En	-9.50582
▁tiers	-9.50604
esprit	-9.50688
▁annonces	-9.50693
▁Noël	-9.50697
▁appel	-9.50781
▁désormais	-9.50793
no	-9.50804
▁Cet	-9.50872
utilisateur	-9.50918
mo	-9.50999
▁publique	-9.51068
▁édition	-9.51163
▁(4)	-9.51218
der	-9.51376
▁ailleurs	-9.51408
▁Veuillez	-9.5142
Etat	-9.5144
▁lorsqu	-9.51479
▁souhaite	-9.51512
▁droite	-9.51607
▁véritable	-9.51764
▁marche	-9.51847
▁Prix	-9.51967
vi	-9.5205
▁voix	-9.52098
▁Qui	-9.52107
▁Est	-9.52123
car	-9.52232
oc	-9.52253
▁Chaque	-9.52541
20	-9.52566
▁peine	-9.52678
▁propriété	-9.5273
q	-9.52768
▁succès	-9.52832
▁livres	-9.52839
▁2006	-9.52866
intérieur	-9.52907
▁cinéma	-9.52931
...)	-9.52954
▁divers	-9.53027
ticulièrement	-9.53084
▁mi	-9.53105
▁référence	-9.5317
▁marques	-9.53256
▁sport	-9.5327
▁Découvrez	-9.5339
▁Google	-9.53475
▁lieux	-9.53526
▁activité	-9.53587
avez	-9.5363
▁idées	-9.53676
lu	-9.53679
▁garantie	-9.53722
▁membre	-9.53725
▁respect	-9.53898
aï	-9.53934
▁chance	-9.54037
▁chat	-9.54051
▁République	-9.54166
▁fonctionnalités	-9.54201
▁centres	-9.54263
▁règles	-9.54346
▁processus	-9.54411
▁cherche	-9.54445
▁soins	-9.54452
si	-9.54596
▁légales	-9.54604
▁soutien	-9.54694
▁veux	-9.5491
15	-9.54947
▁(...)	-9.54988
▁devrait	-9.5499
▁moyenne	-9.55001
▁chambres	-9.55018
▁bain	-9.55032
▁Non	-9.55339
voir	-9.55462
▁numérique	-9.55491
▁lumière	-9.55516
▁ancien	-9.55658
▁lundi	-9.55669
▁montant	-9.55749
mer	-9.55829
000	-9.55853
espace	-9.56028
▁feu	-9.56164
des	-9.56268
▁chemin	-9.56374
ite	-9.56544
▁soi	-9.56579
▁voit	-9.56607
▁direct	-9.56645
▁Europe	-9.56714
▁liberté	-9.56919
▁village	-9.56943
▁identifié	-9.56957
▁Ou	-9.56961
▁rend	-9.56998
▁pratiques	-9.5716
▁élèves	-9.57164
mm	-9.57169
▁fins	-9.57244
min	-9.57258
▁reçu	-9.57364
Europe	-9.57381
▁passage	-9.57446
ions	-9.57662
▁the	-9.5767
▁population	-9.57723
▁politiques	-9.57813
▁Me	-9.57935
▁œuvre	-9.57968
hésitez	-9.58137
sse	-9.58233
ise	-9.58386
▁moyens	-9.58406
▁pourtant	-9.58416
▁mission	-9.5846
ig	-9.5846
ordre	-9.58525
▁cinq	-9.58529
état	-9.58569
▁Québec	-9.58657
▁solutions	-9.58686
▁papier	-9.58732
▁domicile	-9.58733
activité	-9.58782
intérêt	-9.58788
▁montre	-9.58871
▁physique	-9.58897
▁agréable	-9.59064
mé	-9.59139
▁soirée	-9.59162
▁catégorie	-9.59181
▁vol	-9.59233
▁www	-9.59342
▁décidé	-9.59531
▁peur	-9.59587
▁sorte	-9.59612
▁collection	-9.5967
▁représente	-9.597
▁gratuitement	-9.59712
▁modifier	-9.59758
▁prêt	-9.59835
nes	-9.59976
▁parti	-9.60012
▁outils	-9.6004
▁ouvert	-9.60129
▁v	-9.60302
▁devient	-9.60425
▁cliquez	-9.60667
▁@	-9.60697
+	-9.60846
▁décision	-9.60891
ette	-9.60923
▁avaient	-9.60939
▁commun	-9.60966
▁magasin	-9.61051
▁connu	-9.61303
dessus	-9.6144
▁es	-9.61445
▁boutique	-9.61567
▁crois	-9.61675
▁puissance	-9.61701
là	-9.61795
tant	-9.61847
▁ami	-9.61928
▁concours	-9.61942
▁vis	-9.6198
tra	-9.61987
▁États	-9.62015
▁couple	-9.62027
▁poste	-9.62034
▁parcours	-9.62102
▁bio	-9.62104
▁contenus	-9.62157
▁nécessaires	-9.62281
▁nouvel	-9.62339
▁fichier	-9.62352
▁auto	-9.62398
▁tes	-9.62423
âge	-9.6244
▁rencontrer	-9.62451
▁actuellement	-9.6263
iens	-9.62646
▁ressources	-9.62673
pa	-9.62674
▁Rencontre	-9.6276
idée	-9.62795
▁campagne	-9.62806
▁format	-9.62844
▁utilisons	-9.62921
net	-9.63233
▁LA	-9.63236
▁groupes	-9.63291
▁moteur	-9.6332
▁quelle	-9.63321
▁k	-9.63604
▁naissance	-9.63664
▁Oui	-9.63748
▁territoire	-9.64049
▁or	-9.64156
▁fête	-9.64188
▁statistiques	-9.64204
▁logiciel	-9.6424
▁films	-9.64311
▁confort	-9.64396
▁changement	-9.64426
▁européenne	-9.6445
▁Canada	-9.64467
▁liens	-9.64508
▁premiers	-9.64553
IN	-9.64557
▁gagner	-9.6492
▁Enfin	-9.65002
▁Pays	-9.65031
ES	-9.65051
▁responsabilité	-9.65118
▁idée	-9.65266
enligne	-9.65291
▁location	-9.65307
importe	-9.65324
▁joueurs	-9.65374
▁voulez	-9.65385
ché	-9.65431
▁Per	-9.65433
▁privée	-9.65514
tin	-9.65642
▁faisant	-9.65695
▁dossier	-9.65734
▁mail	-9.65846
▁transport	-9.65936
étais	-9.66011
ka	-9.66026
▁El	-9.66067
▁Aujourd	-9.66139
▁volonté	-9.66294
▁tels	-9.66298
▁planète	-9.66424
▁travailler	-9.66446
▁longue	-9.66471
▁gratuite	-9.66513
▁télé	-9.6662
▁post	-9.6663
▁o	-9.66652
application	-9.66658
▁ch	-9.66781
▁assurer	-9.66783
▁malgré	-9.66787
▁Pi	-9.66872
▁arrive	-9.67088
▁!!	-9.67129
▁internationale	-9.67142
*	-9.67338
▁résultat	-9.67351
®	-9.67491
▁touche	-9.67506
▁suffit	-9.67639
▁importante	-9.6764
▁maximum	-9.67703
▁participer	-9.67707
▁puisque	-9.67858
▁Facebook	-9.67933
va	-9.67997
▁sud	-9.68079
ang	-9.68144
ab	-9.68166
▁modèles	-9.68221
▁trans	-9.68343
sur	-9.68371
▁—	-9.6841
▁commerce	-9.68415
▁jeudi	-9.68475
▁quartier	-9.685
▁médias	-9.68648
hi	-9.68827
▁telle	-9.68839
▁proximité	-9.69075
▁Bar	-9.69084
▁Elles	-9.69137
▁consommation	-9.69249
▁Français	-9.69453
▁lutte	-9.69502
▁mémoire	-9.69553
▁prochain	-9.69557
▁Di	-9.69809
▁actions	-9.69854
ables	-9.69902
▁support	-9.70203
▁Mois	-9.70205
▁Service	-9.70312
▁beauté	-9.70421
bo	-9.70473
▁capacité	-9.70545
▁délai	-9.70553
▁dos	-9.70588
▁laisse	-9.70607
ba	-9.70612
▁Sans	-9.70657
▁voie	-9.70707
pi	-9.70747
▁match	-9.7077
▁garantir	-9.70809
▁réservés	-9.70916
▁pose	-9.70952
▁position	-9.70961
ière	-9.71017
▁week	-9.71037
▁rester	-9.71104
▁informatique	-9.71128
▁réalisé	-9.71367
administration	-9.7153
▁mercredi	-9.71884
▁envoyer	-9.72213
▁cheveux	-9.72223
euse	-9.72235
▁retrouve	-9.72238
▁allez	-9.72311
▁publié	-9.72559
▁commence	-9.72651
40	-9.72786
▁efficace	-9.72838
mon	-9.73
actualité	-9.73003
▁contraire	-9.73049
▁80	-9.7309
▁seconde	-9.73178
▁Mont	-9.73202
▁=	-9.73335
▁présentation	-9.73386
▁filles	-9.73547
▁(5)	-9.73582
ue	-9.73609
▁perdu	-9.73746
▁utilisateur	-9.73791
12	-9.73839
▁total	-9.7392
▁New	-9.74096
enfant	-9.74175
▁document	-9.74177
▁to	-9.74204
▁mesures	-9.74212
▁plainte	-9.74267
▁véhicule	-9.74287
▁cul	-9.74317
è	-9.74334
▁bonnes	-9.74376
▁animaux	-9.74478
impression	-9.74517
▁complète	-9.74529
▁partout	-9.74603
▁magnifique	-9.74609
▁per	-9.74625
▁ordinateur	-9.74664
▁gaz	-9.7469
▁électrique	-9.74738
▁profil	-9.74791
▁bleu	-9.74804
▁Mo	-9.74815
▁dessus	-9.74905
▁Bo	-9.75017
▁demandé	-9.75082
tion	-9.75086
▁réduire	-9.75255
▁heure	-9.7528
▁su	-9.75378
ois	-9.75401
ienne	-9.7542
▁sort	-9.75455
▁pleine	-9.75467
▁documents	-9.75475
ger	-9.75547
▁micro	-9.7563
▁surface	-9.75685
▁Voir	-9.75721
▁développer	-9.75728
▁détails	-9.75822
erie	-9.75837
▁manger	-9.75905
▁international	-9.75907
▁!!!	-9.75966
▁déc	-9.75968
accueil	-9.7604
▁forte	-9.76067
▁mondiale	-9.76092
▁piscine	-9.76115
▁mains	-9.76115
▁vitesse	-9.76182
▁dix	-9.76236
▁goût	-9.76355
▁roman	-9.76357
entrée	-9.7639
utiliser	-9.76422
▁visage	-9.76475
▁présenter	-9.76556
▁porter	-9.76557
ron	-9.76574
▁concerne	-9.76637
▁Etats	-9.76696
èrent	-9.76747
▁and	-9.76793
▁continue	-9.76804
▁auteurs	-9.76841
▁François	-9.7696
▁moderne	-9.76972
▁Selon	-9.77015
cher	-9.77056
ha	-9.77185
lin	-9.77198
▁Avant	-9.77211
▁naturel	-9.77255
▁Jeux	-9.77277
▁propres	-9.77316
po	-9.77341
▁sac	-9.77367
▁utilisant	-9.77409
>	-9.77415
▁pr	-9.77454
ants	-9.7751
▁électronique	-9.7756
▁choisi	-9.77567
▁fer	-9.77651
19	-9.77759
▁totalement	-9.77787
▁éviter	-9.7784
▁rÃ	-9.77931
▁sujets	-9.78124
▁2005	-9.78142
▁Lorsque	-9.78301
▁poids	-9.78327
▁distance	-9.78398
▁continuer	-9.78465
▁relations	-9.78479
ap	-9.78542
▁plans	-9.78574
▁Très	-9.7858
▁mobile	-9.78823
mi	-9.78911
=	-9.79077
ana	-9.79079
▁Président	-9.79099
▁parfaitement	-9.79155
▁hauteur	-9.79171
▁200	-9.79196
▁acheter	-9.79252
vé	-9.79366
▁Val	-9.794
▁commencer	-9.79437
▁département	-9.79477
▁régulièrement	-9.79511
▁rêve	-9.79648
[	-9.79818
▁réalisation	-9.7989
▁vin	-9.799
▁Ville	-9.79974
▁tellement	-9.79987
▁pouvons	-9.80016
▁guide	-9.80043
▁Be	-9.80065
▁dispose	-9.80214
▁parfait	-9.80441
▁derrière	-9.80447
▁tendance	-9.80454
▁accord	-9.80505
▁Sac	-9.80526
and	-9.80602
em	-9.8064
▁application	-9.80675
▁utilisées	-9.80724
▁fera	-9.80747
▁compter	-9.8077
▁bi	-9.80856
▁Mar	-9.80901
environnement	-9.81031
▁peinture	-9.81035
▁cartes	-9.81051
▁vent	-9.81128
vis	-9.8115
▁Pourquoi	-9.81231
▁festival	-9.81268
▁compagnie	-9.81305
res	-9.81336
ER	-9.81339
▁logement	-9.81377
▁classique	-9.81457
▁penser	-9.81495
ouverture	-9.81513
."	-9.81526
▁types	-9.81598
▁100%	-9.81704
▁fournir	-9.81711
▁permettra	-9.81741
▁calme	-9.81887
▁po	-9.8194
▁mm	-9.82007
▁limite	-9.82083
▁comprend	-9.82123
▁bonheur	-9.8218
ty	-9.82394
▁mardi	-9.82403
▁newsletter	-9.82436
▁vit	-9.82486
offre	-9.82519
▁bras	-9.82557
▁publics	-9.82573
▁change	-9.82586
▁Ta	-9.82619
▁risques	-9.82684
▁lu	-9.82741
ien	-9.82764
▁al	-9.82766
▁célèbre	-9.82784
▁belles	-9.8281
▁sauf	-9.82822
▁parties	-9.82837
▁durable	-9.82896
▁généralement	-9.82924
▁spectacle	-9.82928
mar	-9.82981
▁Accueil	-9.83066
son	-9.83128
▁cependant	-9.83129
▁joue	-9.83205
État	-9.83207
▁Na	-9.83337
▁structure	-9.83371
▁portes	-9.83536
▁habitants	-9.83664
▁davantage	-9.83689
▁intérieur	-9.83729
▁chaud	-9.83744
▁relative	-9.83799
analyse	-9.83845
▁regarder	-9.83879
fi	-9.83883
▁troisième	-9.83886
▁personnages	-9.83893
▁information	-9.83918
▁Cependant	-9.83922
tes	-9.83964
Q	-9.83982
organisation	-9.84005
▁radio	-9.84043
▁Michel	-9.84057
▁vision	-9.84094
▁voilà	-9.84123
▁réception	-9.84158
▁Groupe	-9.84247
▁gérer	-9.84269
op	-9.84323
▁repas	-9.8435
mes	-9.8439
▁machine	-9.84394
▁2000	-9.84407
▁adaptés	-9.84455
▁entier	-9.8449
▁court	-9.84491
pro	-9.84655
pour	-9.84771
▁courant	-9.84783
▁Signaler	-9.84979
▁500	-9.85102
▁découverte	-9.85173
▁mètres	-9.85262
▁termes	-9.85363
▁entièrement	-9.854
avec	-9.85503
▁conception	-9.85506
ologie	-9.85512
▁raisons	-9.85514
▁passion	-9.85548
25	-9.85577
ub	-9.8558
▁objectif	-9.85623
▁environnement	-9.85736
ttes	-9.85784
▁attention	-9.8584
gé	-9.8593
▁objets	-9.85986
▁fa	-9.8635
▁supérieur	-9.8635
▁acteurs	-9.86413
Je	-9.86451
dire	-9.86469
▁Ch	-9.86531
80	-9.86546
▁parc	-9.86571
▁peuple	-9.86591
▁Ha	-9.86614
▁2019	-9.86633
ON	-9.8666
▁anglais	-9.86665
▁note	-9.86683
ak	-9.86745
ill	-9.86785
▁clair	-9.86817
▁cliquant	-9.8682
▁aime	-9.86841
▁idéal	-9.86912
tro	-9.86942
▁étudiants	-9.86947
ix	-9.86951
▁maladie	-9.87098
ille	-9.871
▁Société	-9.87261
▁bientôt	-9.87289
▁coin	-9.87336
▁Po	-9.87428
▁correspond	-9.87464
▁air	-9.87487
▁terrasse	-9.87543
▁poser	-9.87559
▁privé	-9.87584
▁pi	-9.87693
▁options	-9.87704
▁soin	-9.87745
▁Tri	-9.87755
isé	-9.87755
▁décoration	-9.87895
▁nord	-9.88047
▁locaux	-9.88111
▁paramètres	-9.88173
▁directeur	-9.88238
▁garder	-9.88254
▁Cour	-9.88306
▁voici	-9.88315
▁2018,	-9.88361
ques	-9.88375
▁partenaire	-9.88385
▁Suisse	-9.88391
▁entendu	-9.88437
▁No	-9.8845
▁accessoires	-9.88477
ateurs	-9.88509
AL	-9.88555
▁valeurs	-9.8863
cha	-9.88668
▁quant	-9.8877
▁Mentions	-9.88773
▁gratuits	-9.88815
▁Lyon	-9.88875
▁puisse	-9.88937
▁bébé	-9.88952
dit	-9.89064
Il	-9.89078
▁police	-9.89196
▁connexion	-9.892
▁course	-9.89203
▁amour	-9.89244
▁crédit	-9.89344
ive	-9.89366
iser	-9.89382
▁Belgique	-9.8952
▁né	-9.89578
▁mêmes	-9.8959
▁Paul	-9.89621
▁top	-9.89679
▁art	-9.89759
▁Femme	-9.89911
▁verre	-9.89986
io	-9.89999
▁réel	-9.90016
▁fruits	-9.90024
▁historique	-9.90027
▁test	-9.90153
▁sang	-9.90194
▁LE	-9.9027
▁70	-9.9028
▁vendre	-9.9028
▁Chine	-9.90332
▁lettre	-9.90335
▁section	-9.90418
▁col	-9.90441
▁champ	-9.9045
▁01	-9.90465
▁Art	-9.90493
ments	-9.9051
▁montrer	-9.90578
ag	-9.90701
▁Tour	-9.90708
▁technologie	-9.90717
▁crise	-9.90751
om	-9.90881
iques	-9.9091
▁carrière	-9.90972
▁Même	-9.90972
▁(6)	-9.90973
aller	-9.90989
▁sociétés	-9.91001
▁bouton	-9.91044
oublie	-9.91114
▁preuve	-9.91136
▁Cookies	-9.9123
▁régime	-9.91236
▁i	-9.91275
▁Vos	-9.91298
▁bénéficier	-9.91318
▁protéger	-9.91324
éro	-9.91327
▁prochaine	-9.91359
▁faible	-9.9139
18	-9.91404
▁caractéristique	-9.91412
▁Terre	-9.91478
aires	-9.91481
▁cadeau	-9.91484
▁artistes	-9.91503
▁principe	-9.91537
ay	-9.91551
▁recette	-9.91553
▁cour	-9.91573
▁pieds	-9.91577
ens	-9.91586
▁riche	-9.91685
iv	-9.9169
▁tenu	-9.91728
cu	-9.91757
70	-9.91777
▁règlement	-9.91782
▁payer	-9.91794
époque	-9.91803
▁continuant	-9.91842
▁veuillez	-9.91852
▁Histoire	-9.91865
▁compétences	-9.91916
▁combat	-9.91932
▁patrimoine	-9.91934
ade	-9.91949
▁second	-9.92029
13	-9.92129
ris	-9.922
90	-9.92273
▁pouvait	-9.92317
▁possède	-9.92323
▁vert	-9.92394
▁signifie	-9.92396
▁Santé	-9.92415
▁Nouvelle	-9.92439
chi	-9.92463
▁action	-9.92467
▁TV	-9.92493
▁Ex	-9.92493
▁fichiers	-9.92497
√®	-9.92529
▁plage	-9.92549
cent	-9.92554
▁35	-9.92612
nel	-9.92634
▁outil	-9.92659
▁emploi	-9.92707
▁bande	-9.92793
▁conscience	-9.92877
▁pression	-9.92881
▁désir	-9.93149
▁répond	-9.93151
ina	-9.9317
▁Grâce	-9.93216
▁meilleures	-9.93241
▁explique	-9.93486
16	-9.93562
▁familles	-9.93633
▁vide	-9.93648
▁mini	-9.93696
▁déco	-9.93712
▁publication	-9.93745
▁fini	-9.93826
économie	-9.93872
AS	-9.93899
▁fonctions	-9.93928
▁méthode	-9.9397
▁endroit	-9.94063
enseignement	-9.94168
▁Monde	-9.94276
▁croissance	-9.94522
▁six	-9.94533
▁w	-9.94645
▁tenir	-9.94689
▁Toute	-9.94779
▁formes	-9.94883
▁plantes	-9.94888
▁90	-9.9495
iers	-9.95043
▁médecin	-9.95147
▁justice	-9.9518
▁communes	-9.95193
▁événements	-9.95308
▁appareil	-9.95348
▁associations	-9.95434
21	-9.95438
étude	-9.95474
▁premières	-9.95475
▁Cours	-9.95483
▁So	-9.95503
▁affaires	-9.95565
▁Donc	-9.95567
appel	-9.95673
▁passant	-9.9568
▁https	-9.95692
▁propriétaire	-9.9574
▁restaurant	-9.95777
▁min	-9.95802
▁ET	-9.95852
▁ferme	-9.95871
land	-9.95898
ck	-9.959
▁Go	-9.95908
▁résidence	-9.96104
01	-9.96111
AM	-9.96241
rons	-9.963
Union	-9.96338
14	-9.96353
11	-9.96459
▁interdits	-9.96479
bi	-9.96496
▁liés	-9.96577
uc	-9.96597
▁vois	-9.96605
▁Ad	-9.96735
▁finalement	-9.96755
▁défaut	-9.96757
▁réussi	-9.96779
▁for	-9.96788
▁Deux	-9.96864
▁chercher	-9.96874
▁majorité	-9.96874
▁située	-9.96905
ages	-9.96908
isse	-9.96975
▁inscription	-9.97014
▁milliers	-9.97023
fa	-9.97065
▁JavaScript	-9.97071
▁café	-9.97241
▁coût	-9.97257
ign	-9.97264
ane	-9.97322
org	-9.97354
inscription	-9.97413
▁réduction	-9.97429
▁Skyrock	-9.9747
don	-9.97565
▁condition	-9.97566
iez	-9.97658
▁revient	-9.97679
▁établissements	-9.97697
▁scolaire	-9.97753
ts	-9.97758
▁partenariat	-9.97857
ven	-9.98015
▁gr	-9.98022
▁froid	-9.98093
▁mé	-9.98115
▁réservation	-9.98187
ate	-9.98204
▁systèmes	-9.98264
éducation	-9.98453
line	-9.98456
▁faite	-9.98552
hôtel	-9.98968
▁Dr	-9.99001
out	-9.99013
▁différence	-9.99048
▁neuf	-9.99089
▁agence	-9.99138
▁proches	-9.99161
▁immédiatement	-9.99168
antes	-9.99228
alité	-9.99247
▁présents	-9.99273
▁technologies	-9.99366
▁chaleur	-9.99433
▁utilisés	-9.99526
▁fr	-9.99532
▁eau	-9.99542
24	-9.99543
▁diverses	-9.99616
▁statut	-9.99678
▁vieux	-9.9969
▁personnage	-9.99744
▁complètement	-9.99765
45	-9.99774
vent	-9.99849
▁villes	-9.9987
▁racistes	-9.99877
▁classement	-9.99879
▁bâtiment	-9.99913
60	-9.99966
▁âge	-10.0002
▁demi	-10.0008
▁porno	-10.0009
▁mur	-10.0014
▁dû	-10.0026
	-10.0029
▁Afin	-10.0041
tel	-10.0041
ture	-10.0041
▁voire	-10.0058
▁certaine	-10.0069
▁financement	-10.0077
▁licence	-10.0081
▁heureux	-10.0082
▁préparation	-10.0087
oir	-10.0088
▁(19	-10.0094
▁marketing	-10.0094
▁maisons	-10.0095
▁fonds	-10.0097
▁Man	-10.01
▁équipes	-10.0108
▁local	-10.0114
▁apprendre	-10.013
▁tableau	-10.013
▁multi	-10.0135
ja	-10.0143
▁faisait	-10.0145
onne	-10.0148
▁Grande	-10.0154
▁humaine	-10.0156
▁appartement	-10.0161
can	-10.0164
ist	-10.0169
▁mari	-10.0171
▁Am	-10.0175
▁perte	-10.0181
▁effets	-10.0182
▁Mal	-10.0187
▁II	-10.0187
od	-10.0189
autant	-10.0193
▁Afrique	-10.0194
▁fonctionne	-10.0196
▁siège	-10.0196
▁devenu	-10.02
▁abus	-10.0208
AC	-10.0209
rent	-10.0209
▁vérité	-10.0214
univers	-10.0218
▁rendu	-10.0224
▁45	-10.0226
▁quantité	-10.023
▁Entre	-10.0234
▁Louis	-10.0242
▁fenêtre	-10.0248
▁américain	-10.026
▁ajouter	-10.0263
ke	-10.0265
▁correctement	-10.0275
22	-10.0275
▁Cha	-10.028
▁température	-10.0281
ko	-10.0286
installation	-10.0287
▁ait	-10.0289
▁panier	-10.0293
pas	-10.0297
▁Puis	-10.0308
▁fleurs	-10.0317
▁principal	-10.0321
▁approche	-10.0323
▁visites	-10.0326
teur	-10.033
▁coupe	-10.0338
▁étude	-10.0351
lle	-10.0351
▁contexte	-10.0355
▁participation	-10.0356
▁contient	-10.0359
▁pourront	-10.0359
ales	-10.036
▁Ra	-10.0361
▁Ben	-10.0365
▁remise	-10.0373
»,	-10.0382
▁concept	-10.0385
▁sérieux	-10.0389
▁roi	-10.039
non	-10.0391
▁Index	-10.0395
▁injurieux	-10.0399
▁bouche	-10.0399
ans	-10.0405
br	-10.0414
US	-10.0415
▁théâtre	-10.0419
▁perdre	-10.0419
▁intéressant	-10.0425
▁Commenter	-10.0441
▁Club	-10.0443
mont	-10.0445
AT	-10.0449
▁ouverte	-10.0452
vin	-10.0453
▁Q	-10.0465
▁publicité	-10.047
▁connecter	-10.0474
▁particuliers	-10.0485
▁Autres	-10.0487
▁TripAdvisor	-10.0488
▁pierre	-10.0488
▁1.	-10.049
za	-10.0493
let	-10.0495
▁Soleil	-10.0497
▁victoire	-10.0502
huile	-10.0505
▁budget	-10.0506
ow	-10.0512
avant	-10.0519
▁oublier	-10.052
existence	-10.0522
▁Mars	-10.0523
In	-10.0528
Re	-10.0532
▁suivante	-10.0554
▁pot	-10.0564
▁Bordeaux	-10.0566
▁vérifier	-10.0572
▁commencé	-10.0576
▁métier	-10.058
▁mélange	-10.0582
▁minimum	-10.0582
▁(7)	-10.0591
▁critères	-10.0594
▁cuir	-10.0596
▁annoncé	-10.0602
▁destination	-10.0613
▁utilisée	-10.062
ification	-10.0626
▁inclus	-10.0627
lot	-10.0627
▁tandis	-10.0631
▁viens	-10.0641
▁visiter	-10.0643
Afrique	-10.0648
▁devis	-10.0649
ho	-10.0651
port	-10.0658
opposition	-10.0659
▁ministère	-10.0659
▁dehors	-10.0663
▁proposons	-10.0664
▁ciel	-10.0664
▁comportement	-10.0678
ami	-10.0686
ations	-10.0694
▁recettes	-10.0697
▁--	-10.07
▁connaissances	-10.0703
▁veulent	-10.0708
▁DU	-10.0712
eu	-10.0717
▁fl	-10.0717
▁outre	-10.0726
▁vaut	-10.0731
ip	-10.0733
▁beaux	-10.0741
▁courrier	-10.0742
▁occasion	-10.0746
▁mises	-10.0752
eaux	-10.0752
▁suivants	-10.076
▁four	-10.0764
▁critique	-10.0765
▁stratégie	-10.0765
▁Li	-10.077
▁tri	-10.0773
▁plat	-10.0777
▁noter	-10.078
▁plateforme	-10.0785
▁Recherche	-10.0789
▁final	-10.0795
▁pouvant	-10.0802
▁paix	-10.0802
men	-10.0804
▁moindre	-10.0816
▁futur	-10.0823
▁forums	-10.0827
▁ba	-10.0829
▁objectifs	-10.0836
▁européen	-10.0836
IR	-10.0837
▁tient	-10.0838
▁présenté	-10.0841
aise	-10.0841
▁2004	-10.0844
▁véhicules	-10.0847
assurance	-10.085
▁PC	-10.0854
▁finale	-10.086
▁tenue	-10.0882
Ma	-10.089
▁Mode	-10.0891
▁To	-10.0892
▁défense	-10.0895
▁(8)	-10.0906
▁Commission	-10.0906
▁Cuisine	-10.0906
ssent	-10.0908
France	-10.0913
ns	-10.0924
▁composé	-10.0925
▁retraite	-10.0929
▁dÃ	-10.0934
▁personnalité	-10.0934
▁servir	-10.0935
▁proposé	-10.0949
▁usage	-10.0959
▁́	-10.0963
▁visiteurs	-10.0965
▁tarifs	-10.0966
▁foi	-10.0968
▁Code	-10.0969
▁Trier	-10.0971
▁apporter	-10.0986
▁performance	-10.0989
▁revenir	-10.099
▁télécharger	-10.0998
▁Retrouvez	-10.1005
▁Carte	-10.1015
gr	-10.1023
▁rythme	-10.1024
▁accéder	-10.1025
▁fi	-10.1026
23	-10.1031
▁Gi	-10.1035
▁Cap	-10.1038
▁activé	-10.1042
ide	-10.1046
▁préparer	-10.1053
▁douce	-10.1053
▁croire	-10.1054
ame	-10.1058
▁fabrication	-10.1059
▁immobilier	-10.1061
▁déclaré	-10.1065
vant	-10.1069
▁Certains	-10.1072
gi	-10.1076
▁cap	-10.108
▁Mes	-10.1086
évolution	-10.1094
▁maître	-10.1097
▁arriver	-10.1104
▁supprimer	-10.1104
gie	-10.1108
espère	-10.1108
▁album	-10.1111
▁hier	-10.1111
arrivée	-10.1124
▁br	-10.1126
▁mondial	-10.1133
lan	-10.1133
▁Archives	-10.1141
delà	-10.1153
▁profit	-10.1154
▁naturelle	-10.116
Université	-10.117
cé	-10.1173
▁zones	-10.1176
▁voyages	-10.1177
OS	-10.1189
▁Droit	-10.1191
▁commercial	-10.1208
▁300	-10.1212
▁stock	-10.1213
▁donnent	-10.1217
▁$	-10.1219
▁basse	-10.122
▁humain	-10.1222
▁applications	-10.1225
ny	-10.1238
tr	-10.1245
IT	-10.1247
▁procédure	-10.1252
▁notes	-10.1257
▁EN	-10.1261
▁comp	-10.1261
▁capable	-10.1265
▁appelle	-10.127
cal	-10.1277
▁Da	-10.1288
agence	-10.1296
▁prévu	-10.1297
Or	-10.1299
nu	-10.1304
▁consultation	-10.131
▁Ni	-10.1311
ines	-10.1314
ster	-10.1323
▁atteint	-10.1329
usage	-10.1329
▁chocolat	-10.1335
▁capitale	-10.1336
tt	-10.1341
▁voulu	-10.1347
▁démarche	-10.1349
ers	-10.1351
▁‘	-10.1361
▁Char	-10.1362
▁savez	-10.1366
▁énergétique	-10.1368
▁distribution	-10.137
▁automatiquement	-10.1371
▁hôtel	-10.1383
ole	-10.1395
avenir	-10.1403
dy	-10.1404
▁Inter	-10.1407
▁serez	-10.141
▁travaille	-10.1416
▁réponses	-10.1431
bon	-10.1432
CE	-10.1433
▁Pré	-10.1437
▁dynamique	-10.1443
▁voyageurs	-10.1443
entretien	-10.1446
▁Air	-10.1449
▁achat	-10.146
▁accessible	-10.1468
▁Jardin	-10.147
▁̈s	-10.148
amp	-10.148
duc	-10.1484
faire	-10.1484
▁st	-10.1486
▁intérieure	-10.1489
bre	-10.1491
▁Confidentialité	-10.1493
▁inscrit	-10.1493
▁précise	-10.1495
annonce	-10.1496
▁sociales	-10.1497
▁scientifique	-10.1497
industrie	-10.1498
▁réussite	-10.1501
▁attendre	-10.1503
▁association	-10.1504
▁prises	-10.1509
▁chien	-10.1511
▁impossible	-10.1522
▁organisé	-10.1527
▁Fa	-10.1529
▁(2	-10.153
▁planètes	-10.1531
▁débat	-10.1532
ik	-10.1535
Est	-10.154
honneur	-10.1542
▁joie	-10.1546
▁Super	-10.1548
établissement	-10.1549
ies	-10.1551
▁forcément	-10.1553
ey	-10.1557
▁forces	-10.1558
Al	-10.1562
objectif	-10.1572
tan	-10.1572
▁énergie	-10.1573
▁Vie	-10.1576
ob	-10.1578
▁domaines	-10.158
▁exercer	-10.1581
auto	-10.1587
ll	-10.1591
▁lesquels	-10.1591
lage	-10.1595
▁objet	-10.1599
▁com	-10.16
▁sent	-10.16
ssant	-10.1603
▁Bou	-10.1605
▁Jacques	-10.1609
▁rose	-10.1615
▁Moi	-10.1616
▁convient	-10.1622
▁époque	-10.1624
▁journal	-10.1625
he	-10.1628
▁viennent	-10.1629
▁métiers	-10.163
ancien	-10.1631
▁construire	-10.164
lement	-10.1644
▁clé	-10.165
▁consentement	-10.1651
▁dispositions	-10.1655
▁obligatoire	-10.1661
▁Lors	-10.1665
▁magazine	-10.1666
▁Petit	-10.1673
▁sept	-10.1674
ration	-10.1675
▁aurez	-10.1682
▁rencontré	-10.169
▁vraie	-10.1694
▁Fi	-10.1696
▁conférence	-10.1706
isée	-10.1709
▁matériaux	-10.171
ile	-10.171
▁professeur	-10.1711
▁performances	-10.1712
▁conseiller	-10.1722
De	-10.1724
▁fiche	-10.1725
avons	-10.1727
tal	-10.1728
▁milliards	-10.1729
▁totale	-10.1734
EN	-10.1734
▁San	-10.1735
▁organisation	-10.1736
ong	-10.1738
▁écoles	-10.1739
▁essayer	-10.1739
▁programmes	-10.1744
ah	-10.1744
▁constitue	-10.1748
née	-10.1755
▁portée	-10.1756
▁recherches	-10.1757
▁élevé	-10.1762
▁collaboration	-10.1768
île	-10.1774
▁telles	-10.1778
▁Jésus	-10.1779
▁Haute	-10.1779
▁dois	-10.1788
Ar	-10.179
▁charme	-10.1795
▁moitié	-10.1796
▁frère	-10.1798
▁modification	-10.1808
▁Philippe	-10.181
▁aff	-10.1818
exposition	-10.1818
▁esprit	-10.1821
ki	-10.1822
▁excellent	-10.1822
▁capital	-10.1829
▁utile	-10.1831
▁anciens	-10.1835
▁Ses	-10.184
ug	-10.1857
▁jeunesse	-10.1859
LE	-10.1859
▁rejoindre	-10.1861
ble	-10.1869
▁certainement	-10.1875
▁Montréal	-10.1876
▁secret	-10.1878
▁Ga	-10.1884
▁défi	-10.1896
rou	-10.1898
UE	-10.1905
ino	-10.1909
▁banque	-10.1915
▁2018.	-10.1917
▁espaces	-10.192
▁moto	-10.1937
ind	-10.194
▁demeure	-10.1941
▁étape	-10.1947
▁conduite	-10.1947
▁exposition	-10.1948
17	-10.195
ud	-10.1958
tent	-10.1961
moi	-10.1966
▁veille	-10.1969
▁maîtrise	-10.1973
Un	-10.1979
▁Musique	-10.1984
▁principalement	-10.1995
▁(9)	-10.1996
▁sympa	-10.1998
99	-10.1999
▁mauvais	-10.2005
extérieur	-10.2011
sion	-10.2011
▁barre	-10.2012
améliorer	-10.202
▁commandes	-10.2024
▁sert	-10.2024
ète	-10.2034
▁maman	-10.2036
▁école	-10.2046
▁tenter	-10.2047
▁lancer	-10.2051
▁grosse	-10.2055
▁longueur	-10.2056
▁Cliquez	-10.2058
▁signes	-10.2059
▁ha	-10.2059
▁montagne	-10.2059
TE	-10.206
▁Novembre	-10.2062
▁adultes	-10.2062
ick	-10.2071
▁réflexion	-10.2081
▁invite	-10.2083
▁(1	-10.209
œuvre	-10.2093
▁lignes	-10.2102
▁financière	-10.2102
▁tente	-10.2104
▁cent	-10.2113
▁anniversaire	-10.2115
IE	-10.2115
▁suppression	-10.2118
ât	-10.2123
▁places	-10.2124
▁apporte	-10.2125
lier	-10.2127
êtes	-10.2128
▁renseignements	-10.2132
val	-10.2132
▁pourraient	-10.2136
▁chaîne	-10.2143
▁populaire	-10.2144
▁acheté	-10.2144
▁supérieure	-10.2146
▁Attention	-10.2147
▁sinon	-10.2148
hiver	-10.2148
pin	-10.2149
lis	-10.215
▁discours	-10.215
exploitation	-10.2153
▁z	-10.2159
06	-10.2165
▁David	-10.2167
éré	-10.2174
▁Sous	-10.2176
35	-10.218
ley	-10.218
▁pire	-10.2183
▁Coupe	-10.2183
▁saint	-10.2188
▁couverture	-10.219
▁relatives	-10.2192
▁sources	-10.2196
▁devait	-10.2199
▁moments	-10.2201
Art	-10.2202
▁toutefois	-10.2207
▁Conformément	-10.2207
▁retard	-10.2208
avis	-10.2211
▁lâ	-10.2212
▁entretien	-10.2216
▁communiquer	-10.2219
écran	-10.2225
▁patients	-10.2226
▁arrière	-10.2227
▁vécu	-10.2229
▁connecté	-10.223
▁calcul	-10.223
accepte	-10.2231
forme	-10.2235
ber	-10.2241
▁Vi	-10.2242
▁auteur	-10.2242
▁musée	-10.2247
▁Maroc	-10.225
29	-10.225
où	-10.2252
ient	-10.2254
▁faudra	-10.2255
▁élément	-10.2265
▁opérations	-10.2274
▁Présentation	-10.2275
▁évidemment	-10.2279
ures	-10.2279
▁dépôt	-10.2286
▁Afficher	-10.2288
IS	-10.229
AN	-10.2291
▁bac	-10.2297
▁pur	-10.2298
▁imp	-10.23
▁vigueur	-10.2303
▁revue	-10.2307
▁ceci	-10.2308
▁commission	-10.2311
adore	-10.2312
▁pensée	-10.2312
▁entrée	-10.2315
▁Ka	-10.2318
▁lettres	-10.2325
▁Formation	-10.2325
▁Te	-10.2328
▁Bonne	-10.233
▁promotion	-10.2331
».	-10.2331
▁sourire	-10.2339
▁by	-10.234
▁réunion	-10.2351
▁vivant	-10.2353
euros	-10.2354
▁Quel	-10.2357
▁salariés	-10.2358
administrateur	-10.2365
▁génération	-10.2366
▁grave	-10.237
nage	-10.2373
▁Th	-10.2374
▁ventes	-10.2376
▁respecter	-10.2379
▁surprise	-10.238
▁violence	-10.238
our	-10.2387
▁Mer	-10.2388
▁masse	-10.239
▁menu	-10.2391
▁lecteur	-10.2392
ini	-10.2393
▁audio	-10.2397
Dé	-10.2399
▁Ver	-10.24
▁sciences	-10.2401
uff	-10.2401
▁rectification	-10.2408
▁concert	-10.2414
▁récemment	-10.2414
▁vote	-10.2416
▁difficultés	-10.2427
$	-10.2427
ze	-10.2427
▁utilisez	-10.2433
ali	-10.2437
▁degrés	-10.2438
écriture	-10.2447
▁attend	-10.2447
▁lance	-10.2451
▁Auto	-10.2452
▁tr	-10.2454
ï	-10.2454
▁vélo	-10.2455
ieux	-10.2466
▁Aide	-10.2474
▁somme	-10.2476
▁particulière	-10.2482
▁consiste	-10.2486
▁multiples	-10.2494
▁reconnu	-10.2495
▁centrale	-10.2496
▁Cor	-10.2499
▁ordre	-10.25
▁commerciale	-10.2502
▁principaux	-10.2502
▁vêtements	-10.2504
tic	-10.2505
▁correspondant	-10.2507
iné	-10.2508
▁pêche	-10.2508
▁Contact	-10.2517
tor	-10.2517
▁boîte	-10.2519
▁Ba	-10.2523
▁disposez	-10.2526
affaires	-10.2536
▁ancienne	-10.2537
▁niveaux	-10.2541
▁effectuer	-10.2543
▁écran	-10.2546
nant	-10.2546
▁pont	-10.2548
▁déclaration	-10.2549
▁rappelle	-10.255
▁dialogue	-10.255
▁cor	-10.2552
▁Culture	-10.2553
ice	-10.2556
▁Parce	-10.2563
▁puisqu	-10.2564
ose	-10.2567
▁mille	-10.2568
!!	-10.2568
▁largement	-10.257
isant	-10.2577
▁Sauter	-10.2578
26	-10.2578
ire	-10.2578
▁clés	-10.2578
▁parfaite	-10.2579
▁diffusion	-10.2585
▁Ro	-10.2588
inter	-10.2593
▁Monsieur	-10.2602
▁Ko	-10.2604
▁2002	-10.2609
▁événement	-10.261
▁Hu	-10.2611
▁blanche	-10.2616
▁Mi	-10.262
▁hébergé	-10.2623
form	-10.2623
▁Ça	-10.2625
▁quotidienne	-10.2629
bat	-10.2631
▁responsables	-10.2634
▁tombe	-10.2641
Lire	-10.2642
▁avantages	-10.2643
▁cru	-10.2648
▁demain	-10.265
▁tôt	-10.2651
mais	-10.2653
▁militaire	-10.2655
▁envoyé	-10.2655
uv	-10.2659
▁32	-10.266
▁résistance	-10.266
▁joueur	-10.2665
lant	-10.2666
▁fan	-10.2667
▁portant	-10.2679
AD	-10.268
▁Ri	-10.2682
▁absolument	-10.2685
▁aimé	-10.2685
▁accepter	-10.2686
OU	-10.2689
▁finir	-10.2689
▁parole	-10.2692
chant	-10.2695
▁batterie	-10.2696
▁logique	-10.2696
▁PS	-10.2698
af	-10.2704
cy	-10.2708
ray	-10.2713
▁::	-10.2714
▁->	-10.2714
▁06	-10.2715
▁présentes	-10.2716
▁continuez	-10.2719
▁sorties	-10.272
nier	-10.2721
▁vouloir	-10.2723
obtenir	-10.2723
▁Mor	-10.2724
▁mou	-10.2729
▁détail	-10.2729
▁bel	-10.2732
environ	-10.2735
ave	-10.2739
▁^^	-10.2742
▁personnelle	-10.2747
▁juge	-10.2749
▁2003	-10.2752
▁Marseille	-10.2753
pt	-10.2754
nelle	-10.2754
▁Salle	-10.2756
▁Nicolas	-10.2756
28	-10.2762
rant	-10.2764
▁univers	-10.2765
édition	-10.2772
ep	-10.2772
▁établissement	-10.2778
▁dessin	-10.2778
▁gratuites	-10.2779
mat	-10.278
pé	-10.2796
▁Bienvenue	-10.2797
▁séance	-10.28
▁ski	-10.28
▁victimes	-10.2812
▁cité	-10.2814
▁normal	-10.2815
éd	-10.2817
ér	-10.2817
AP	-10.2819
▁Chambre	-10.2831
▁intérêt	-10.2833
ru	-10.2834
rez	-10.2838
▁station	-10.2841
▁robe	-10.2848
▁signature	-10.285
▁autorités	-10.2854
▁probablement	-10.2858
▁erreur	-10.2858
▁Col	-10.2864
▁devoir	-10.2866
▁DES	-10.2866
«	-10.2867
▁Bref	-10.2869
▁48	-10.2887
▁Pa	-10.2891
▁Milieu	-10.2892
▁indiqué	-10.2895
▁phase	-10.2906
27	-10.2907
▁sucre	-10.2911
▁conformément	-10.2917
▁crème	-10.2917
▁tarif	-10.2917
▁pluie	-10.292
▁préalable	-10.292
▁serveur	-10.292
▁faciliter	-10.2923
appareil	-10.2924
▁rubrique	-10.2929
▁cadeaux	-10.293
32	-10.2932
atrice	-10.2935
▁appelé	-10.2936
▁option	-10.2942
▁noire	-10.2944
▁vi	-10.2947
▁Pendant	-10.2955
assurer	-10.2956
▁02	-10.2957
▁appareils	-10.2958
▁chute	-10.2959
▁précis	-10.296
&#39;	-10.2968
uel	-10.2968
▁Services	-10.297
▁dollars	-10.2973
▁télévision	-10.2974
ec	-10.2974
▁formule	-10.2979
▁chaussures	-10.2982
▁suit	-10.2985
▁artistique	-10.2985
▁spécifique	-10.2986
▁solaire	-10.2992
▁dépend	-10.3018
▁original	-10.3022
▁ét	-10.3035
nique	-10.304
▁My	-10.3045
▁collective	-10.3045
sol	-10.3046
rin	-10.3049
▁meuble	-10.3051
▁installation	-10.3051
▁All	-10.3057
▁fixe	-10.3058
▁mauvaise	-10.307
▁bo	-10.3071
▁patron	-10.3074
▁Ho	-10.3076
▁collectif	-10.3079
ible	-10.3083
ser	-10.3083
oire	-10.3084
▁économiques	-10.3085
dia	-10.3093
▁150	-10.3101
▁principale	-10.3102
▁logiciels	-10.3105
▁supplémentaires	-10.3107
▁adapté	-10.311
ét	-10.3114
▁méthodes	-10.3116
▁jolie	-10.3116
▁analyse	-10.3123
▁léger	-10.3124
▁officiel	-10.3129
▁Pr	-10.313
▁eaux	-10.3131
avance	-10.3133
oli	-10.3134
▁vaste	-10.3139
▁américaine	-10.3142
naire	-10.3144
▁dédié	-10.3149
▁écrire	-10.3159
▁obtenu	-10.3165
▁Ceci	-10.3167
▁Gra	-10.3168
▁fallait	-10.3176
▁oeuvre	-10.3178
▁Beau	-10.3181
▁chiffres	-10.319
▁tres	-10.3196
▁soumis	-10.3199
▁coups	-10.3211
09	-10.3218
▁dispositif	-10.3219
IC	-10.3224
int	-10.3226
▁with	-10.3227
abilité	-10.323
▁Russie	-10.3235
nd	-10.3238
▁Dès	-10.3244
▁Premier	-10.3246
▁suivantes	-10.3247
mp	-10.3249
▁revenu	-10.3249
▁complexe	-10.3254
08	-10.3255
▁gris	-10.3255
▁(10)	-10.3256
▁Windows	-10.3261
▁sub	-10.3261
▁réparation	-10.3261
▁limites	-10.3269
aider	-10.3269
▁chiffre	-10.3272
▁Date	-10.3282
▁représentant	-10.3282
▁Peut	-10.3285
aurais	-10.3292
tier	-10.3298
▁ambiance	-10.3299
▁douche	-10.3302
▁soyez	-10.3306
▁lancé	-10.3308
▁neige	-10.3309
▁Point	-10.3313
▁char	-10.3314
▁changements	-10.3315
by	-10.3319
EL	-10.3321
▁marchés	-10.3321
▁bref	-10.3322
!!!	-10.3322
▁spécialiste	-10.3327
all	-10.3329
▁lendemain	-10.333
▁pointe	-10.333
▁cabinet	-10.3337
▁secondes	-10.3346
▁indique	-10.3348
▁demandes	-10.3354
▁prestations	-10.3354
▁Côte	-10.3355
▁arrivée	-10.3357
▁sentir	-10.3357
▁session	-10.3358
the	-10.3358
▁porté	-10.3361
▁devra	-10.3361
▁Sol	-10.3364
▁Gu	-10.3364
▁préférences	-10.3367
▁Har	-10.3369
▁tradition	-10.3372
▁̈re	-10.3373
33	-10.3373
▁violation	-10.3377
bas	-10.338
▁prÃ	-10.3385
absence	-10.3394
cm	-10.3397
▁amoureux	-10.34
31	-10.3401
▁civile	-10.3401
▁précision	-10.3402
▁tests	-10.3407
▁reproduction	-10.3409
midi	-10.3409
▁baisse	-10.341
nie	-10.3417
▁scientifiques	-10.342
▁Christ	-10.3422
▁bruit	-10.3422
ches	-10.3422
▁sentiment	-10.3422
asse	-10.3423
▁locale	-10.3423
▁volume	-10.3424
AR	-10.3424
▁Japon	-10.3427
▁inscrire	-10.3429
▁36	-10.344
▁souci	-10.3441
▁tir	-10.3446
-19	-10.3449
▁fou	-10.345
▁équipements	-10.3453
▁Festival	-10.3457
▁Sciences	-10.3458
▁75	-10.3468
▁di	-10.3472
expression	-10.3473
▁indispensable	-10.3473
▁extérieur	-10.3475
▁catégories	-10.3476
▁York	-10.3476
ell	-10.3479
02	-10.348
▁faux	-10.3483
rée	-10.3483
▁participants	-10.3492
▁05	-10.3494
étranger	-10.3499
▁Martin	-10.3502
ières	-10.3504
▁publicités	-10.3507
appelle	-10.3513
▁naviguer	-10.3514
▁Jour	-10.3514
▁découvre	-10.3515
▁figure	-10.3516
▁Noir	-10.3518
▁joli	-10.3525
part	-10.3527
▁cherchez	-10.3527
intérêts	-10.3527
▁Annuaire	-10.3528
OR	-10.3531
▁plastique	-10.3533
▁ateliers	-10.3533
lon	-10.3533
▁allait	-10.3534
▁Comité	-10.354
▁candidats	-10.3543
▁He	-10.3544
tez	-10.3555
▁tomber	-10.3556
▁Article	-10.3558
ès	-10.3559
▁toile	-10.3572
her	-10.3573
▁Voilà	-10.3574
▁chauffage	-10.3575
▁rare	-10.3576
▁étoiles	-10.3578
rap	-10.3583
▁mo	-10.3583
▁définir	-10.3584
▁propriétaires	-10.3585
artiste	-10.3587
identité	-10.3587
ten	-10.3594
cle	-10.3595
▁branche	-10.3596
âme	-10.3597
▁rédaction	-10.3606
▁tissu	-10.361
▁lecteurs	-10.361
info	-10.3611
▁Port	-10.3611
▁conçu	-10.3612
▁littérature	-10.3617
▁connais	-10.3618
ju	-10.362
ari	-10.3623
ras	-10.3623
▁titres	-10.3628
▁juridique	-10.3628
▁Livraison	-10.3634
ling	-10.3635
▁Br	-10.3635
▁bal	-10.3641
▁laissé	-10.3641
▁superbe	-10.3641
▁définition	-10.3645
dis	-10.3648
▁élections	-10.3648
▁doux	-10.3649
▁copie	-10.365
▁principales	-10.3651
▁rentrée	-10.3662
▁tourisme	-10.3666
▁cal	-10.3671
▁crée	-10.3677
▁spécialisée	-10.3678
▁originale	-10.3679
▁courriel	-10.3687
▁arts	-10.3687
▁délais	-10.3688
▁bancaire	-10.3689
ek	-10.3694
▁Mme	-10.3697
▁activer	-10.3697
ime	-10.3697
▁loisirs	-10.3697
rai	-10.37
▁33	-10.3703
intervention	-10.3703
▁catalogue	-10.371
ov	-10.371
▁portrait	-10.3711
ica	-10.3712
▁Lu	-10.3715
▁International	-10.3717
st	-10.3721
▁perd	-10.3725
55	-10.373
ya	-10.3735
bar	-10.3736
▁entrer	-10.3736
▁Su	-10.3739
▁description	-10.3741
----------------	-10.3743
▁légumes	-10.3758
▁conséquences	-10.376
ker	-10.3761
2)	-10.3762
▁Femmes	-10.3762
▁printemps	-10.3763
▁Loire	-10.3764
aventure	-10.3765
▁publiques	-10.3766
▁science	-10.3774
▁confortable	-10.3776
uses	-10.3776
▁Anti	-10.3779
arrive	-10.3781
importance	-10.3794
▁Décembre	-10.3796
ham	-10.3806
▁découvert	-10.3811
serv	-10.3812
entraide	-10.3814
enregistrement	-10.3815
tation	-10.3816
▁traiter	-10.3824
▁Dis	-10.3825
▁cha	-10.3827
▁Faites	-10.3831
▁collecte	-10.3841
▁ultra	-10.3841
▁Marc	-10.3842
ach	-10.3843
den	-10.3851
▁remboursement	-10.3858
▁gay	-10.3859
▁révolution	-10.3864
▁central	-10.3865
▁pan	-10.3869
ô	-10.3873
▁régions	-10.3876
▁Mac	-10.388
rer	-10.3882
§	-10.3882
▁boite	-10.3884
tif	-10.3887
▁Photo	-10.389
▁fortement	-10.3893
▁no	-10.3894
34	-10.3895
▁Londres	-10.3896
tri	-10.3898
▁rapports	-10.3898
PS	-10.3899
▁Musée	-10.3901
▁humains	-10.3901
▁Gestion	-10.3912
envoi	-10.3914
▁réellement	-10.3916
▁conduit	-10.3916
▁prison	-10.3917
▁2001	-10.3923
▁décrit	-10.3924
▁simples	-10.3924
▁ro	-10.3925
cer	-10.3927
lie	-10.3929
SA	-10.3929
SE	-10.393
▁luxe	-10.3933
▁cycle	-10.3934
▁langage	-10.3944
▁Com	-10.3946
nement	-10.395
▁locales	-10.3952
ph	-10.3952
▁situations	-10.3957
fer	-10.3958
▁spécifiques	-10.3958
▁graphique	-10.3961
▁Allemagne	-10.3963
▁actuelle	-10.3963
plus	-10.3966
exercice	-10.3971
▁chaude	-10.3976
▁accueille	-10.3976
so	-10.3979
▁formations	-10.3985
▁portable	-10.3987
▁décide	-10.3992
▁Inc	-10.3994
▁citoyens	-10.4001
effet	-10.4002
▁seuls	-10.4005
itaire	-10.4011
gu	-10.4012
▁allons	-10.4012
▁comité	-10.4014
▁enquête	-10.4014
▁Nom	-10.4018
cul	-10.4021
Ré	-10.4024
▁atteindre	-10.4027
▁langues	-10.4029
▁Journée	-10.403
▁comptes	-10.4031
▁voitures	-10.4033
▁Apple	-10.4036
one	-10.4037
▁Javascript	-10.4039
▁Tra	-10.404
▁meubles	-10.4041
êt	-10.4043
▁thé	-10.4049
▁forêt	-10.4052
▁Bruxelles	-10.4058
▁intérêts	-10.406
▁pleinement	-10.4069
▁retourner	-10.4074
▁venu	-10.4085
ps	-10.4087
▁net	-10.4091
▁remettre	-10.4094
▁ad	-10.4094
IM	-10.4095
▁célibataires	-10.4096
▁calendrier	-10.4103
▁recours	-10.4105
▁DVD	-10.4117
▁Ju	-10.4118
▁Mag	-10.4119
ces	-10.4121
▁décor	-10.4122
▁09	-10.413
apprentissage	-10.4131
▁Table	-10.4136
Pro	-10.4137
▁maire	-10.4141
ban	-10.4144
2017	-10.4148
bé	-10.4151
75	-10.4156
▁transformation	-10.4156
▁chargé	-10.4162
▁Description	-10.4167
▁Ligue	-10.4168
▁<	-10.4171
lation	-10.4172
▁studio	-10.4172
▁atelier	-10.4175
affaire	-10.4178
▁Lo	-10.4179
▁camp	-10.4181
attention	-10.4182
▁pompe	-10.4183
▁Vente	-10.4183
...).	-10.419
▁changé	-10.4193
▁Bas	-10.4197
IL	-10.4198
04	-10.42
▁Presse	-10.4204
▁candidat	-10.4205
lic	-10.4205
ries	-10.4206
▁hasard	-10.4208
▁assure	-10.4208
▁restent	-10.4209
▁colis	-10.4213
▁intellectuelle	-10.4213
▁pe	-10.4216
▁ouvre	-10.4219
▁pa	-10.4228
▁Publié	-10.4229
▁retrait	-10.4231
▁Loi	-10.4232
▁truc	-10.4234
dou	-10.4237
tÃ	-10.4239
▁faveur	-10.4247
▁chanson	-10.4247
▁arrivé	-10.4248
nés	-10.4258
▁Contacter	-10.4261
▁→	-10.4262
▁connaît	-10.4263
▁pain	-10.4266
▁interne	-10.4266
#	-10.427
▁cache	-10.427
▁construit	-10.4271
ET	-10.4272
ord	-10.4273
▁clairement	-10.4275
▁normes	-10.4284
▁inc	-10.4286
▁exactement	-10.4288
48	-10.4288
eme	-10.4292
ori	-10.4295
▁valable	-10.4297
▁disponibilité	-10.4299
▁Salon	-10.4304
▁bus	-10.4307
▁astuces	-10.4307
ouvre	-10.431
én	-10.4311
▁Design	-10.4313
▁taxes	-10.4314
▁Lune	-10.4317
▁ver	-10.4319
▁automatique	-10.432
▁récit	-10.4323
atelier	-10.4324
lay	-10.4325
▁Quelques	-10.4326
nom	-10.4327
issant	-10.4327
▁disque	-10.4329
▁prénom	-10.4335
▁possibilités	-10.4336
▁sorti	-10.4337
▁mention	-10.4339
▁mod	-10.4339
▁lois	-10.434
▁Charles	-10.4342
▁Pe	-10.4343
▁agents	-10.4343
▁proposés	-10.435
▁argent	-10.4354
ano	-10.4356
▁Retour	-10.4356
yn	-10.4358
▁danger	-10.4364
▁rénovation	-10.4364
▁quête	-10.4366
▁salles	-10.4368
▁incroyable	-10.4372
▁climat	-10.4375
▁Copyright	-10.4376
▁bateau	-10.4382
▁vins	-10.4383
▁enjeux	-10.4384
▁achats	-10.4385
tons	-10.4386
▁Aussi	-10.4387
▁Belle	-10.4388
▁Pourtant	-10.4388
▁lait	-10.4389
▁entend	-10.4391
▁évolution	-10.4391
▁poster	-10.4398
vers	-10.4403
▁mar	-10.4403
▁HD	-10.4405
UR	-10.4407
ian	-10.441
▁garage	-10.4412
▁fêtes	-10.4413
han	-10.4415
▁nouveautés	-10.4418
▁Tr	-10.4422
▁cesse	-10.4423
euses	-10.4426
▁Ensuite	-10.4427
jo	-10.4434
▁dates	-10.4435
▁douleur	-10.4436
▁Sou	-10.4436
▁Bi	-10.4436
▁raconte	-10.4436
Ok	-10.4441
▁joué	-10.4442
illon	-10.4442
▁météo	-10.4443
igne	-10.4443
mis	-10.445
ran	-10.4452
cho	-10.4453
▁nu	-10.4466
armée	-10.447
▁stage	-10.4471
oise	-10.4476
ative	-10.4477
▁Vidéo	-10.4488
▁dâ	-10.4492
▁personnaliser	-10.4495
▁streaming	-10.4495
▁ouvrage	-10.4496
▁réduit	-10.4497
▁bilan	-10.451
▁légère	-10.4514
▁lesquelles	-10.4515
▁Ici	-10.4517
▁Sport	-10.4519
▁sommet	-10.452
▁revanche	-10.4523
▁compétition	-10.4527
▁expériences	-10.4529
▁sec	-10.4531
▁rire	-10.4533
▁be	-10.4536
▁permanent	-10.4549
▁mérite	-10.4553
▁continu	-10.4554
bou	-10.4557
▁National	-10.4557
▁Faire	-10.4558
▁jaune	-10.4558
alisation	-10.456
▁trouvent	-10.4561
▁utiles	-10.4565
gue	-10.4568
▁france	-10.4569
tage	-10.4569
▁(3	-10.4578
▁attentes	-10.4578
▁oublié	-10.458
▁échange	-10.458
écoute	-10.4587
▁(11)	-10.4597
▁intégré	-10.4599
vie	-10.4601
▁recommande	-10.4606
ités	-10.4607
▁leader	-10.4611
▁murs	-10.4612
▁chant	-10.4612
2.	-10.4617
▁personnels	-10.4617
▁hausse	-10.4622
▁invités	-10.4625
▁kilomètres	-10.4626
▁viande	-10.4628
▁Star	-10.4629
▁active	-10.4632
tait	-10.4639
▁stress	-10.4641
▁Quant	-10.4651
émission	-10.4653
instant	-10.4654
site	-10.4656
▁Rien	-10.4657
▁fit	-10.4659
▁Guide	-10.466
▁gare	-10.466
100	-10.466
animation	-10.466
▁déjeuner	-10.4661
▁dessous	-10.4662
▁souvenir	-10.4663
▁conserver	-10.4664
▁traduction	-10.4664
▁difficulté	-10.4666
▁football	-10.4667
▁monter	-10.4673
▁Toulouse	-10.4673
▁envers	-10.4679
05	-10.4683
▁Royaume	-10.4684
▁39	-10.4684
▁Première	-10.4691
▁Robert	-10.4693
▁collège	-10.4695
ola	-10.4696
ust	-10.4696
bel	-10.47
▁Quelle	-10.4703
▁feuilles	-10.4704
▁château	-10.4705
▁développé	-10.4705
|--	-10.4711
▁morts	-10.4717
▁reprendre	-10.472
▁paysage	-10.472
▁dur	-10.472
▁tester	-10.4723
▁sou	-10.4727
▁08	-10.4734
RE	-10.4738
▁composition	-10.4739
▁CO	-10.474
version	-10.4746
ographie	-10.4746
▁électriques	-10.4756
▁accompagner	-10.4759
▁effectué	-10.4763
▁impact	-10.4765
engage	-10.4765
bit	-10.4768
▁précédent	-10.4773
exception	-10.4775
▁34	-10.4776
élection	-10.4785
▁servi	-10.4788
▁logo	-10.4793
▁légèrement	-10.4797
▁portail	-10.4797
▁is	-10.4797
rais	-10.4798
▁Anne	-10.48
▁destinées	-10.4801
▁coordonnées	-10.481
▁spécialisé	-10.4824
▁Bretagne	-10.4827
▁échanges	-10.4828
▁38	-10.4828
▁Ti	-10.483
▁réalise	-10.4834
qué	-10.4838
ani	-10.4847
iel	-10.4849
▁règle	-10.4853
▁transfert	-10.4855
▁meme	-10.4855
▁aspects	-10.4857
▁potentiel	-10.4859
▁Laurent	-10.486
-1	-10.486
▁devenue	-10.4861
ça	-10.4862
▁idéale	-10.4864
▁conséquent	-10.4868
▁sexy	-10.487
▁vingt	-10.4871
PA	-10.4877
▁ve	-10.4881
église	-10.4881
▁Italie	-10.4883
MA	-10.4883
cre	-10.4885
OL	-10.4889
▁grossesse	-10.489
▁vend	-10.4891
▁clientèle	-10.4893
▁Guerre	-10.4893
▁lac	-10.4896
app	-10.4898
vel	-10.4899
▁stade	-10.4901
▁facture	-10.4909
▁liées	-10.4912
fort	-10.4918
▁revoir	-10.4918
▁puissant	-10.492
▁réalisée	-10.4925
▁centaines	-10.4927
07	-10.493
▁accueil	-10.4935
▁Bal	-10.4936
option	-10.4937
▁photographie	-10.494
▁donnée	-10.4941
▁automobile	-10.4945
▁400	-10.4946
▁affaire	-10.495
▁Ci	-10.4953
▁kit	-10.4954
tiques	-10.4954
ima	-10.4957
ama	-10.4964
▁Toutefois	-10.4968
Uni	-10.4969
tres	-10.497
▁côtés	-10.4971
▁voulais	-10.4972
▁Sainte	-10.4976
▁Twitter	-10.4976
inc	-10.498
vier	-10.4983
ect	-10.4984
▁médicaments	-10.4986
▁mandat	-10.4988
▁noms	-10.499
▁prennent	-10.4993
▁Général	-10.4994
▁libertés	-10.4995
opération	-10.4996
▁magique	-10.4997
▁experts	-10.4998
▁spécial	-10.5
▁ST	-10.5001
▁supplémentaire	-10.5002
▁combien	-10.5011
▁arrêté	-10.5013
▁03	-10.5016
court	-10.5016
▁Blanc	-10.5017
▁restauration	-10.5018
▁Malgré	-10.5019
▁cliquer	-10.5027
http	-10.503
RA	-10.5031
▁Porte	-10.5032
▁destiné	-10.5033
▁soutenir	-10.5033
▁mouvements	-10.5037
IA	-10.5041
▁cheval	-10.5041
bus	-10.5043
▁46	-10.5045
rencontre	-10.5045
nais	-10.5052
▁voulait	-10.5055
dans	-10.5058
▁rang	-10.5058
95	-10.5059
▁rec	-10.5067
table	-10.5077
▁pre	-10.5077
▁allé	-10.5078
▁actes	-10.5078
▁longues	-10.508
▁actuel	-10.5083
▁CD	-10.5084
oo	-10.5085
▁Do	-10.5085
ets	-10.5085
▁montage	-10.5086
▁discussion	-10.5089
▁équipée	-10.5095
ati	-10.5096
▁signé	-10.5098
gen	-10.51
▁camping	-10.51
▁nommé	-10.51
▁différent	-10.5101
▁Rencontres	-10.5102
▁métal	-10.5107
▁communiqué	-10.5111
▁fondateur	-10.5114
▁bains	-10.5114
▁Vol	-10.5124
▁prenant	-10.5125
▁Nouveau	-10.513
▁tirer	-10.5142
ç	-10.5143
ange	-10.5146
▁biais	-10.5149
▁manquer	-10.5152
▁traditionnelle	-10.5157
▁effectivement	-10.5157
▁CE	-10.5158
▁refus	-10.516
▁étapes	-10.5162
▁aventure	-10.5164
▁alimentaire	-10.5167
we	-10.5167
▁Min	-10.5173
ast	-10.5174
▁importants	-10.5175
▁établi	-10.5176
▁familiale	-10.5177
van	-10.518
lit	-10.518
].	-10.5182
▁directe	-10.5183
habitude	-10.5185
▁primaire	-10.5194
▁contenant	-10.5196
▁plaît	-10.5198
▁enregistré	-10.52
▁04	-10.5201
thé	-10.5204
▁marqué	-10.5206
▁indépendant	-10.5206
▁cancer	-10.5207
gon	-10.5208
▁configuration	-10.5212
hé	-10.5216
OM	-10.5218
tive	-10.522
audience	-10.5224
▁capacités	-10.523
▁engagement	-10.5231
émi	-10.5237
▁restaurants	-10.5242
my	-10.5245
▁œuvres	-10.5245
▁déchets	-10.5252
▁infos	-10.5252
aud	-10.5252
▁Cal	-10.5252
gre	-10.5253
▁champs	-10.5253
ert	-10.5254
▁consacré	-10.5258
▁présidentielle	-10.5261
▁lycée	-10.5262
Ouest	-10.5266
Con	-10.5269
▁nettoyage	-10.5272
▁profondeur	-10.5273
ado	-10.5274
▁cible	-10.5276
gar	-10.5278
▁contrôler	-10.528
▁Parc	-10.5286
Vous	-10.5287
esse	-10.5291
▁â	-10.5292
▁dirigeants	-10.5296
▁produire	-10.5296
▁standard	-10.5297
IF	-10.53
▁Directeur	-10.5304
▁matières	-10.5309
▁CanalBlog	-10.5312
03	-10.5314
▁Parmi	-10.5314
▁avions	-10.5318
▁basé	-10.5318
▁Radio	-10.5319
▁victime	-10.5328
oy	-10.5331
▁autorisation	-10.5332
▁entière	-10.5332
mêmes	-10.5332
▁Client	-10.5333
▁cra	-10.5337
▁Seigneur	-10.5345
▁Home	-10.5345
▁Plusieurs	-10.5349
▁vise	-10.5354
▁machines	-10.5357
jour	-10.5358
▁Bleu	-10.5359
▁ga	-10.5361
inscrire	-10.5364
▁affiche	-10.5367
▁tourner	-10.5369
▁médecine	-10.5375
IP	-10.5377
▁créée	-10.5378
ning	-10.538
▁Rouge	-10.5381
▁Informatique	-10.5384
▁ar	-10.5385
▁Provence	-10.5386
▁fréquence	-10.5389
▁Autre	-10.5392
CA	-10.5392
ret	-10.5396
▁pensez	-10.5398
▁Bel	-10.5399
▁garçon	-10.541
▁LES	-10.5411
▁revenus	-10.5412
▁Trouver	-10.5412
Association	-10.5419
39	-10.5419
mère	-10.5421
ule	-10.5425
▁réservé	-10.5426
▁Place	-10.5428
ction	-10.543
▁Note	-10.543
▁disparu	-10.5431
▁quitter	-10.5432
▁Luc	-10.5435
▁Ab	-10.5435
▁chasse	-10.5436
bert	-10.5438
université	-10.544
enfants	-10.5441
Institut	-10.5442
▁courage	-10.5445
▁bataille	-10.5449
▁histoires	-10.5452
▁coté	-10.5454
▁Cher	-10.5457
▁Produits	-10.5462
ym	-10.5468
▁consommateurs	-10.5468
su	-10.5476
▁Mai	-10.5477
Au	-10.5478
▁importantes	-10.5478
▁récupérer	-10.5479
▁armes	-10.5485
▁connue	-10.5489
▁suisse	-10.5489
▁efforts	-10.5493
65	-10.5493
ita	-10.5493
▁bu	-10.5497
▁ouvrir	-10.5497
▁culturel	-10.55
▁55	-10.5501
▁énorme	-10.5503
fe	-10.5503
▁caisse	-10.5507
▁retirer	-10.551
▁Couleur	-10.5511
▁financier	-10.5511
comme	-10.5515
▁maladies	-10.5516
gin	-10.5519
rier	-10.552
▁Parti	-10.5521
OT	-10.5525
▁chacune	-10.5528
teurs	-10.5529
▁1000	-10.5529
▁spéciale	-10.5534
▁circulation	-10.5534
▁réforme	-10.5537
▁remplacer	-10.5538
arch	-10.5538
▁appris	-10.554
▁humaines	-10.5541
▁proposition	-10.5542
▁dure	-10.5542
▁organise	-10.5543
▁sélectionné	-10.5543
anne	-10.5543
off	-10.555
▁can	-10.5551
▁écoute	-10.5555
▁Nationale	-10.5555
▁hiver	-10.5556
▁reconnaissance	-10.556
ting	-10.556
era	-10.5575
▁importe	-10.5579
▁Top	-10.5579
▁nécessite	-10.5582
Nous	-10.5591
▁province	-10.5595
▁43	-10.5596
ort	-10.5597
ombre	-10.5598
▁allant	-10.5598
▁étrange	-10.56
▁Bernard	-10.56
▁Moyen	-10.56
ity	-10.5605
fin	-10.5605
EM	-10.5609
arrêt	-10.561
▁numériques	-10.5611
éviter	-10.5611
▁trafic	-10.5611
▁patient	-10.5615
existe	-10.5616
▁os	-10.5618
▁amateurs	-10.562
▁Création	-10.5621
AF	-10.5627
▁magie	-10.5628
▁découvrez	-10.5629
▁Leur	-10.563
▁cou	-10.5636
ges	-10.5637
▁Espace	-10.5641
▁Mou	-10.5641
mit	-10.5645
▁remplir	-10.5647
▁VI	-10.5653
▁situe	-10.5654
EP	-10.5655
42	-10.5658
1)	-10.5661
ène	-10.5662
iz	-10.5669
▁midi	-10.567
▁chinois	-10.567
▁rares	-10.5671
▁Macron	-10.5671
▁fermeture	-10.5674
cl	-10.5676
▁Bois	-10.5676
acte	-10.568
CO	-10.568
On	-10.5681
▁commerciales	-10.5681
▁Accessoires	-10.5685
vo	-10.5688
▁opération	-10.5692
▁parking	-10.5692
▁Protection	-10.5695
▁faute	-10.5698
illi	-10.5699
▁artiste	-10.57
▁prévention	-10.5701
3)	-10.5701
▁Venez	-10.5702
▁décès	-10.5703
ock	-10.5704
▁CroissantD	-10.5709
▁étrangères	-10.5712
met	-10.5718
CH	-10.5718
▁trouvez	-10.572
44	-10.5721
▁Sal	-10.5726
	-10.573
av	-10.5731
rique	-10.5733
▁consultez	-10.5739
▁concurrence	-10.5745
échange	-10.5746
▁prête	-10.5749
▁principes	-10.575
ult	-10.575
▁sable	-10.5751
▁Banque	-10.5751
▁magasins	-10.5752
2,	-10.5753
▁Suite	-10.5753
▁notification	-10.5754
dre	-10.5755
études	-10.5758
▁Ah	-10.576
▁trÃ	-10.5763
▁arrêt	-10.5768
ache	-10.5774
urgence	-10.5774
▁extérieure	-10.5776
▁côte	-10.5777
▁dimension	-10.5778
▁Daniel	-10.5779
pot	-10.578
Par	-10.5786
▁Black	-10.5789
▁Pé	-10.5789
▁conc	-10.5789
▁thèmes	-10.5792
▁(12)	-10.5792
▁proposent	-10.5793
▁Gar	-10.5794
évaluation	-10.5794
▁Direction	-10.5796
▁religion	-10.5798
qua	-10.5798
▁vendeur	-10.5801
▁possibles	-10.5803
ères	-10.5805
enquête	-10.5818
ria	-10.5821
▁justement	-10.5823
bu	-10.5824
▁coton	-10.5826
▁informé	-10.5827
issement	-10.5832
▁thermique	-10.5836
▁logements	-10.5839
▁ressort	-10.5839
▁journaliste	-10.584
36	-10.5844
▁assurance	-10.5845
gan	-10.585
illage	-10.5852
2018	-10.5854
▁Sch	-10.5858
▁résolution	-10.5862
▁entendre	-10.5862
tine	-10.5865
▁venue	-10.5868
ome	-10.587
▁liquide	-10.5871
▁ab	-10.5872
▁sélectionner	-10.5873
▁théorie	-10.5873
▁Ministre	-10.5874
atif	-10.5882
▁nécessité	-10.5885
▁françaises	-10.5885
exemple	-10.5889
architecture	-10.5889
▁démocratie	-10.5892
▁saisir	-10.5895
▁Bureau	-10.5895
▁auquel	-10.5897
▁indépendante	-10.5898
▁nul	-10.5901
yl	-10.5903
▁installé	-10.5907
▁silence	-10.5908
iff	-10.5911
▁complément	-10.5914
▁enseignants	-10.5917
év	-10.5923
investissement	-10.5924
▁42	-10.5924
▁chercheurs	-10.5927
▁extrêmement	-10.5927
▁ouverture	-10.5928
▁offrent	-10.593
ouvrir	-10.5933
▁considéré	-10.5934
▁Pen	-10.5936
Co	-10.5941
▁Développement	-10.5947
▁recrutement	-10.5947
▁laissez	-10.5947
Bas	-10.5948
▁continent	-10.5949
▁solidarité	-10.5955
▁Sandales	-10.5955
▁financiers	-10.5956
pon	-10.5956
▁menace	-10.5958
har	-10.5961
col	-10.5962
▁seraient	-10.5963
▁croissant	-10.5966
▁pé	-10.5967
▁ob	-10.5968
wa	-10.5969
▁Contactez	-10.5973
▁tapis	-10.5975
▁couche	-10.5976
▁surveillance	-10.5977
ara	-10.5978
▁Seine	-10.5981
▁Fédération	-10.5989
impôt	-10.5992
▁pâte	-10.5992
▁culturelle	-10.5995
▁immense	-10.5995
▁Ru	-10.5996
▁publicitaires	-10.5997
url	-10.5997
▁exceptionnelle	-10.6
▁privés	-10.6
▁morale	-10.6006
ayant	-10.6006
▁diversité	-10.6008
▁massage	-10.601
▁regarde	-10.6016
▁impression	-10.6018
▁Télé	-10.6019
▁créations	-10.602
▁indésirables	-10.6023
▁spécialement	-10.6023
▁Sécurité	-10.6025
lais	-10.6025
▁amie	-10.6026
▁philosophie	-10.6029
▁exigences	-10.603
▁Trans	-10.603
▁rappel	-10.6038
▁médicament	-10.604
▁IP	-10.6044
▁Chi	-10.6047
ié	-10.6048
quin	-10.6048
oui	-10.605
▁cons	-10.6053
▁maintenir	-10.6054
▁participe	-10.6055
oud	-10.6061
UL	-10.6061
▁séries	-10.6069
▁espèces	-10.6073
▁prestation	-10.6074
▁accident	-10.6075
crit	-10.6078
▁travailleurs	-10.6081
▁publier	-10.6081
▁manuel	-10.6082
▁cri	-10.6083
EC	-10.6086
▁russe	-10.6086
▁arbres	-10.6088
38	-10.6088
▁accueillir	-10.609
entend	-10.6094
▁actif	-10.6094
bourg	-10.6095
▁erreurs	-10.6099
▁profession	-10.61
▁reprise	-10.6104
▁recueillies	-10.6105
▁discuter	-10.6106
▁billet	-10.6111
▁Compte	-10.6115
▁conséquence	-10.6125
▁piste	-10.6127
û	-10.6129
▁fur	-10.6131
▁procédé	-10.6131
▁th	-10.6132
▁désirez	-10.6132
lée	-10.6134
▁enregistrer	-10.6135
oul	-10.6135
▁prévue	-10.6137
▁réelle	-10.6139
▁don	-10.6141
▁Française	-10.6146
hu	-10.6147
▁phénomène	-10.6147
efficacité	-10.6147
ouille	-10.6153
▁compréhension	-10.6157
ace	-10.6158
▁étrangers	-10.6159
▁ren	-10.617
▁Région	-10.617
quet	-10.6172
▁Né	-10.6175
▁faits	-10.6178
vit	-10.6187
▁rond	-10.6193
▁Aucun	-10.6194
▁motifs	-10.6195
▁représentation	-10.6195
▁conduire	-10.6197
▁influence	-10.6199
▁organisée	-10.6199
CI	-10.6201
▁attendant	-10.6212
onde	-10.6212
pos	-10.6217
▁adaptée	-10.6221
dition	-10.6223
▁accepté	-10.6228
▁SA	-10.6236
▁Her	-10.6236
kin	-10.6238
▁Chez	-10.6239
illes	-10.6241
▁rem	-10.6242
▁associé	-10.6245
▁notion	-10.6245
▁lot	-10.6247
aujourd	-10.6249
▁secrétaire	-10.6251
▁Bu	-10.6252
▁authentique	-10.6253
▁{	-10.6254
▁collections	-10.6256
▁RE	-10.6259
▁rangement	-10.6263
▁glace	-10.6269
▁modes	-10.6272
▁Maintenant	-10.6274
ui	-10.6275
▁britannique	-10.6275
▁saut	-10.6278
▁degré	-10.6279
▁médical	-10.628
▁Celui	-10.6282
▁solide	-10.6285
▁fleur	-10.629
▁amoureuse	-10.6291
ff	-10.6292
ira	-10.6293
▁huit	-10.6294
écroissant	-10.6294
▁globale	-10.6301
▁réussir	-10.6302
▁mu	-10.6308
▁sympathique	-10.6309
▁mener	-10.6314
▁venez	-10.6315
▁expert	-10.6316
▁contemporaine	-10.6317
▁Rome	-10.6318
▁confirme	-10.6323
▁Association	-10.6327
▁souvenirs	-10.6331
aine	-10.6331
▁sensible	-10.6332
▁détaillé	-10.6332
▁téléphonique	-10.6334
▁contemporain	-10.6335
▁intense	-10.6342
▁douceur	-10.6342
▁44	-10.6347
▁John	-10.6347
▁Sé	-10.6348
alimentation	-10.6353
▁info	-10.6354
▁Sénégal	-10.6354
▁transmission	-10.6356
▁ins	-10.6357
PE	-10.6359
▁fe	-10.636
▁exceptionnel	-10.636
▁!)	-10.6361
▁dossiers	-10.6364
ida	-10.6364
▁remercie	-10.6364
▁organisations	-10.6365
▁Christian	-10.6365
▁bibliothèque	-10.6367
▁sécurisé	-10.6369
ft	-10.637
▁Beaucoup	-10.6373
nait	-10.6375
▁carton	-10.6377
▁expliquer	-10.6377
▁contrats	-10.6377
▁Arts	-10.6378
Pierre	-10.6381
▁BD	-10.6385
▁cerveau	-10.6386
▁Cam	-10.639
▁65	-10.6392
▁repos	-10.6395
\	-10.6397
▁courses	-10.6398
ifier	-10.6398
▁déterminer	-10.64
▁reçoit	-10.6407
▁37	-10.6414
▁visant	-10.6418
▁Is	-10.642
▁(13)	-10.6421
berg	-10.6423
▁tra	-10.6426
▁Livre	-10.6427
lim	-10.6427
▁similaires	-10.6429
▁dommage	-10.6432
▁accompagné	-10.6436
▁renforcer	-10.6441
▁ronde	-10.6442
▁profond	-10.6444
wi	-10.6445
▁missions	-10.6446
▁poursuivre	-10.6449
▁contr	-10.6454
humanité	-10.6457
▁fournisseur	-10.6458
éri	-10.6459
▁lié	-10.6462
LA	-10.6467
▁PDF	-10.6473
85	-10.6476
▁dédiée	-10.648
▁Mé	-10.6483
▁cérémonie	-10.6487
▁championnat	-10.6487
▁Ed	-10.6488
▁auront	-10.649
▁géant	-10.649
▁élus	-10.6491
SI	-10.6493
▁Pan	-10.6493
▁hommage	-10.6494
▁pilote	-10.6496
▁Auteur	-10.6498
▁Conférence	-10.6499
tain	-10.6502
▁décisions	-10.6504
▁comporte	-10.6507
aimerais	-10.6509
-2	-10.6509
Ch	-10.6511
▁partis	-10.6513
▁fans	-10.6522
lib	-10.6523
▁ra	-10.6524
ste	-10.6525
▁évènements	-10.6526
ote	-10.6526
59	-10.6527
▁téléchargement	-10.6528
rac	-10.6529
ologue	-10.6531
▁adulte	-10.6533
oubliez	-10.6535
49	-10.6537
océan	-10.6538
tout	-10.654
▁débit	-10.6544
logie	-10.6548
étaient	-10.6549
▁installer	-10.6554
rit	-10.6554
▁tablette	-10.6555
▁spécialistes	-10.6557
▁toucher	-10.6558
▁III	-10.6564
Assemblée	-10.6567
DA	-10.657
isés	-10.6575
▁hyper	-10.6577
▁dites	-10.6577
▁paris	-10.6583
▁flux	-10.6584
▁rou	-10.6585
▁120	-10.6586
▁sé	-10.6587
▁fourni	-10.6588
▁actualités	-10.6592
▁devraient	-10.6592
▁AuteurDate	-10.6593
èle	-10.6599
▁nucléaire	-10.6601
▁fonctionner	-10.6606
▁malheureusement	-10.6606
▁susceptibles	-10.6607
▁souhait	-10.661
influence	-10.6611
▁destin	-10.6612
▁modifiée	-10.6613
▁apprécié	-10.6613
▁individuelle	-10.6613
▁Vin	-10.6615
rat	-10.6616
▁Affaires	-10.6621
quer	-10.6622
▁rempli	-10.6623
▁loup	-10.6627
▁identifier	-10.6631
▁positive	-10.6634
▁Wi	-10.6636
tit	-10.6639
oeuvre	-10.664
agir	-10.664
innovation	-10.6641
▁prévues	-10.6647
▁offert	-10.6647
▁Ja	-10.6651
▁Ser	-10.6653
▁conseille	-10.6658
▁Trois	-10.6658
▁animal	-10.6664
▁scénario	-10.6665
illé	-10.6666
▁rivière	-10.667
▁pou	-10.6674
OC	-10.6674
▁étage	-10.6677
riez	-10.6682
▁sel	-10.6688
▁jus	-10.6691
▁préfère	-10.6695
▁organismes	-10.6697
▁traduit	-10.6698
acheter	-10.6705
▁go	-10.6705
▁enfance	-10.6706
▁ado	-10.6707
▁dessins	-10.6708
az	-10.6708
▁rappeler	-10.6709
▁héros	-10.6709
ième	-10.671
▁confirmation	-10.6715
km	-10.6718
▁diagnostic	-10.6718
▁am	-10.6719
▁transformer	-10.6722
▁Espagne	-10.6723
pré	-10.6725
▁aspect	-10.6725
▁man	-10.6726
▁considérerons	-10.6726
▁travaillé	-10.6727
▁avance	-10.6735
uelle	-10.6736
▁propositions	-10.6737
nent	-10.6737
▁transports	-10.674
▁pla	-10.6741
ax	-10.6742
▁troubles	-10.6743
▁classiques	-10.6745
▁japonais	-10.675
▁minute	-10.6752
▁paroles	-10.6752
▁Bio	-10.6755
▁Lou	-10.6757
56	-10.6758
▁Programme	-10.6765
▁cré	-10.6765
▁Encore	-10.6767
▁jugement	-10.6769
▁contactez	-10.6771
▁Er	-10.6776
électricité	-10.6779
▁(14)	-10.678
▁lancement	-10.6788
▁écrite	-10.6794
ata	-10.6794
▁personnalisé	-10.6798
▁acte	-10.6799
Allemagne	-10.6804
▁Pre	-10.6809
▁Sp	-10.6809
▁nourriture	-10.6811
▁donnant	-10.6813
ost	-10.6813
▁circuit	-10.6815
▁fournisseurs	-10.6815
affichage	-10.6815
▁Sinon	-10.6816
▁modalités	-10.6823
nez	-10.6827
||--	-10.6828
}	-10.6832
Ce	-10.6833
UN	-10.6833
▁sentiments	-10.6834
▁07	-10.6837
▁maintien	-10.6842
▁parlé	-10.6842
▁réaction	-10.6843
▁dangereux	-10.6843
Si	-10.6844
▁institutions	-10.6847
▁instant	-10.6848
▁drôle	-10.6852
▁extraordinaire	-10.6853
▁sauver	-10.6855
▁courte	-10.6859
▁structures	-10.6861
▁choc	-10.6861
▁Main	-10.6862
tar	-10.6864
▁libres	-10.6871
▁militaires	-10.6872
ight	-10.6873
▁émotions	-10.6876
▁For	-10.6877
▁limitée	-10.6877
ouest	-10.6881
▁Projet	-10.6881
▁souffle	-10.6887
▁belge	-10.6888
cri	-10.6889
▁ass	-10.689
mann	-10.6893
▁Catégories	-10.6894
▁rouges	-10.6894
nis	-10.6895
▁scolaires	-10.6898
shirt	-10.6898
▁bénéficiez	-10.6904
▁précisément	-10.6904
▁plateau	-10.6904
▁case	-10.6906
▁Sc	-10.6906
▁tournée	-10.6907
▁1999	-10.6908
▁apparaît	-10.6912
▁tome	-10.6915
▁gain	-10.6915
▁emb	-10.6916
▁placé	-10.6917
▁officielle	-10.6917
bl	-10.692
▁̈	-10.6924
▁publicitaire	-10.6924
▁Journal	-10.6928
▁reprend	-10.6928
▁anciennes	-10.6934
téri	-10.6935
▁offrant	-10.6935
▁smartphone	-10.694
▁Ministère	-10.6949
▁satisfait	-10.6951
▁mange	-10.6952
og	-10.6955
▁charges	-10.6956
▁religieux	-10.6959
chet	-10.6962
ef	-10.6967
▁plats	-10.6968
▁reconnaître	-10.6968
▁retrouvé	-10.6968
▁esthétique	-10.6973
5%	-10.6975
▁Android	-10.6975
▁élu	-10.6978
▁mobilité	-10.6978
▁coucher	-10.698
▁collectivités	-10.6983
▁Aux	-10.6988
▁fournies	-10.6989
▁remarqué	-10.6993
▁cercle	-10.6998
▁obligé	-10.6999
Espagne	-10.7
▁Disponible	-10.7003
attaque	-10.7004
▁tableaux	-10.7009
offrir	-10.701
▁voile	-10.7013
▁rat	-10.7016
▁satisfaction	-10.7018
ouvrage	-10.7018
chon	-10.7018
▁cre	-10.7019
▁Can	-10.7022
▁fromage	-10.7026
▁médecins	-10.7026
▁coopération	-10.7027
▁Rose	-10.7031
trice	-10.7032
4)	-10.7035
▁optimale	-10.7036
▁actifs	-10.7039
▁interdit	-10.7041
▁classes	-10.7042
égalité	-10.7042
▁stockage	-10.7049
▁content	-10.7051
▁riches	-10.7052
▁excellente	-10.7053
▁gu	-10.7056
▁secteurs	-10.7057
2016	-10.7058
▁préféré	-10.706
ake	-10.7061
▁verte	-10.7061
▁sportif	-10.7062
ball	-10.7063
resse	-10.7067
▁remis	-10.7071
▁Van	-10.7071
▁mec	-10.7074
▁Petite	-10.7074
▁chantier	-10.7074
▁int	-10.7076
▁autrement	-10.7077
abri	-10.7078
▁qualités	-10.7085
▁importance	-10.7087
actu	-10.7087
▁Jours	-10.7087
▁Sam	-10.7088
▁Vert	-10.7088
endroit	-10.709
▁régional	-10.7091
▁Actualités	-10.7092
▁tend	-10.7094
nal	-10.7095
▁remplacement	-10.71
▁basée	-10.71
▁séances	-10.7101
▁Ki	-10.7102
▁ben	-10.7104
▁limiter	-10.7107
venant	-10.7108
▁mairie	-10.7109
▁Jo	-10.711
iller	-10.7116
”,	-10.7122
ack	-10.7135
▁peintre	-10.714
▁recevez	-10.7141
▁composée	-10.7141
▁mécanique	-10.7142
▁billets	-10.7143
▁Ph	-10.7143
▁Sports	-10.7144
▁internationales	-10.7147
TS	-10.715
▁écologique	-10.7151
▁richesse	-10.7151
uve	-10.7154
▁toit	-10.7156
▁furent	-10.7158
▁déplacer	-10.7158
▁bijoux	-10.7159
anglais	-10.7162
OP	-10.7163
Mai	-10.7165
▁250	-10.7165
▁valide	-10.7166
▁horaires	-10.7168
▁vice	-10.7168
▁convention	-10.7169
▁Thiès	-10.717
▁bases	-10.7176
▁Littérature	-10.7177
▁handicap	-10.7178
▁naturels	-10.7185
▁désert	-10.7185
▁bat	-10.7187
Pour	-10.7189
▁mesurer	-10.7193
▁Théâtre	-10.7195
▁italien	-10.7198
▁Homme	-10.7199
78	-10.72
▁exp	-10.7201
▁Nantes	-10.7202
rage	-10.7202
▁look	-10.7203
▁bâtiments	-10.7205
▁CON	-10.7208
ATION	-10.7211
▁box	-10.7212
▁favoris	-10.722
trait	-10.7222
▁détente	-10.7223
▁Haut	-10.7226
▁Panneau	-10.7227
▁froide	-10.7231
▁PRO	-10.7232
37	-10.7232
▁Vo	-10.7233
▁annuelle	-10.7235
lique	-10.7235
▁peint	-10.7236
▁parfum	-10.7236
uer	-10.7239
▁tourne	-10.7239
▁faudrait	-10.724
aille	-10.724
expédition	-10.7241
ada	-10.7243
▁lutter	-10.7244
▁Annonces	-10.7244
▁exclusivement	-10.7246
▁sommeil	-10.7246
▁°	-10.7246
▁//	-10.7252
▁talent	-10.7253
old	-10.7253
▁appartient	-10.7256
▁fidèle	-10.7258
▁sportifs	-10.7259
▁motif	-10.7261
log	-10.7261
DI	-10.7262
▁traité	-10.7263
▁arabe	-10.7264
▁majeure	-10.7266
▁video	-10.7267
▁voyez	-10.7268
aménagement	-10.7269
anche	-10.727
nc	-10.7275
▁carnet	-10.7279
▁Université	-10.7283
tée	-10.7285
utilise	-10.7286
▁montré	-10.7286
▁Master	-10.7288
▁Choisissez	-10.7291
ôme	-10.7292
▁prière	-10.7294
Madeleine	-10.7294
▁messagerie	-10.7295
▁prêts	-10.7295
▁alimentation	-10.7297
▁augmenter	-10.73
▁plate	-10.731
▁Mini	-10.7316
▁Mc	-10.732
▁interdite	-10.7321
▁mettent	-10.7325
▁600	-10.7326
Une	-10.7329
▁employés	-10.7329
ib	-10.7332
▁chiens	-10.7333
arc	-10.7334
▁recommandé	-10.7337
▁vieille	-10.734
▁Fort	-10.7342
▁dépenses	-10.7342
anda	-10.7343
▁assurent	-10.7348
▁intervention	-10.7348
▁mettant	-10.7348
▁chapitre	-10.7349
illa	-10.735
▁Christophe	-10.7354
nat	-10.7357
ENT	-10.7357
▁Pat	-10.7363
▁constitué	-10.7364
▁Château	-10.7366
tour	-10.7382
▁rêves	-10.7384
▁rel	-10.7384
ê	-10.7386
▁essayé	-10.7392
▁fruit	-10.7392
▁remet	-10.7395
▁Meilleur	-10.7395
yer	-10.7397
▁tendances	-10.7397
▁instructions	-10.7398
▁facteurs	-10.7398
TI	-10.7399
▁bassin	-10.74
▁Inscrivez	-10.74
▁frères	-10.7401
ancienne	-10.7401
▁néanmoins	-10.7404
ARD	-10.7405
amélioration	-10.7406
essentiel	-10.7415
▁invitons	-10.7416
▁chansons	-10.7417
▁agit	-10.7419
▁naturellement	-10.742
▁programmation	-10.7421
érer	-10.7422
▁européens	-10.7422
▁Jusqu	-10.7423
Sujet	-10.7423
▁Gr	-10.7424
jou	-10.7425
ME	-10.7427
▁Samedi	-10.7428
▁visible	-10.7428
▁accessibles	-10.743
▁géographique	-10.7431
ial	-10.7435
aliser	-10.7437
▁CA	-10.744
▁suffisamment	-10.7441
▁défendre	-10.7443
▁Photos	-10.7444
raient	-10.7445
ault	-10.7447
▁commerciaux	-10.7447
AGE	-10.7449
▁Alain	-10.7449
▁Brésil	-10.7452
▁Pont	-10.7456
CC	-10.7457
bra	-10.7458
▁Là	-10.7459
▁Père	-10.746
▁souffrance	-10.746
ros	-10.7465
▁1978	-10.7465
▁dominantes	-10.747
ize	-10.7471
▁participé	-10.7472
▁Chat	-10.7476
▁sensibilité	-10.7477
uf	-10.7481
▁proposées	-10.7481
▁certes	-10.7483
duit	-10.7491
tech	-10.7492
cour	-10.7493
▁représentants	-10.7494
▁essentiel	-10.7494
▁colère	-10.7497
▁acc	-10.75
▁soucis	-10.7501
▁informer	-10.7502
▁Réunion	-10.7503
aff	-10.7504
Ex	-10.7505
amb	-10.7507
▁majeur	-10.7508
66	-10.7508
▁paysages	-10.7509
▁motivation	-10.7512
ric	-10.7517
▁visiteur	-10.7517
▁procéder	-10.7524
eng	-10.7524
▁ri	-10.7525
▁Choisir	-10.7528
organisme	-10.7529
89	-10.753
▁décret	-10.753
▁gagné	-10.7533
▁coûts	-10.7536
▁commandé	-10.7536
▁bureaux	-10.7538
▁rock	-10.7543
▁Européenne	-10.7549
▁front	-10.7554
▁Nice	-10.7555
ites	-10.7556
▁Del	-10.7557
▁prenez	-10.7559
▁destinée	-10.756
▁élève	-10.7564
las	-10.7566
▁Chef	-10.7567
RI	-10.757
tis	-10.7573
sta	-10.7574
▁relativement	-10.7576
bes	-10.7577
°1	-10.7577
▁aimez	-10.7579
▁vallée	-10.7581
embl	-10.7584
autorité	-10.7586
étend	-10.7591
▁paire	-10.7591
á	-10.7594
▁sèche	-10.7596
▁installations	-10.7597
▁contribution	-10.7597
▁kg	-10.76
▁Avis	-10.76
▁intime	-10.7602
unité	-10.7603
▁disent	-10.7605
▁clip	-10.761
▁tension	-10.7615
ren	-10.7623
▁prudence	-10.7623
▁augmente	-10.7625
tisme	-10.7634
MC	-10.7638
▁passée	-10.7641
▁acier	-10.7642
▁us	-10.7642
▁Loisirs	-10.7643
▁agir	-10.7643
▁Fondation	-10.7644
▁Fin	-10.7647
▁née	-10.7648
▁pensé	-10.7648
▁Consultez	-10.7649
▁démocratique	-10.7649
▁publiés	-10.7649
AB	-10.7651
▁rentrer	-10.7651
mie	-10.7653
▁hôtels	-10.7654
avantage	-10.7656
Italie	-10.7657
▁atteinte	-10.7657
ît	-10.7661
▁acquis	-10.7661
▁savent	-10.7664
pre	-10.7665
eries	-10.7667
illy	-10.7669
▁USB	-10.767
▁Madame	-10.767
▁Ve	-10.7673
cré	-10.7674
▁41	-10.7676
▁recul	-10.7677
tions	-10.7678
▁raisonnable	-10.7678
▁conservation	-10.768
▁Group	-10.7681
▁limité	-10.7685
▁interview	-10.7685
▁Tom	-10.7686
zi	-10.7686
▁musicale	-10.7691
ala	-10.7692
▁traite	-10.7693
41	-10.7693
ng	-10.7695
▁épisode	-10.7696
tés	-10.7696
▁LED	-10.7697
▁Poste	-10.7703
43	-10.7703
▁gra	-10.7704
aura	-10.7706
installer	-10.7707
▁Profitez	-10.771
mou	-10.7717
▁00	-10.7718
▁Saturne	-10.7721
▁astrologique	-10.7723
▁doigts	-10.7724
lat	-10.7724
▁choisissez	-10.7726
▁SE	-10.7727
▁identité	-10.7733
▁fun	-10.7735
▁Algérie	-10.7738
ev	-10.7739
▁poche	-10.7744
▁1998	-10.7746
lette	-10.7746
otte	-10.7746
▁sexuelle	-10.7747
▁score	-10.7747
ox	-10.7748
▁quasi	-10.7749
▁journalistes	-10.7751
▁essentiellement	-10.7753
▁Strasbourg	-10.7756
imp	-10.7758
▁pop	-10.7759
▁morceaux	-10.776
▁chefs	-10.7766
▁médicale	-10.7768
▁dose	-10.7769
▁bou	-10.7772
64	-10.7773
▁auraient	-10.7777
▁parallèle	-10.778
▁Commentaires	-10.7781
▁montée	-10.7783
▁postes	-10.7785
envoyer	-10.7786
ID	-10.7789
▁Maurice	-10.7789
▁prime	-10.7794
TRE	-10.7794
▁Emmanuel	-10.7795
▁réservée	-10.7796
46	-10.7796
▁quart	-10.7799
▁conférences	-10.7802
rice	-10.7803
▁galerie	-10.7807
▁révèle	-10.7808
▁2019.	-10.7809
▁semblent	-10.7812
▁Mise	-10.7814
endre	-10.7815
▁Trump	-10.7815
▁conf	-10.7815
▁terminé	-10.7818
▁poisson	-10.7818
▁Aller	-10.7819
alcool	-10.7824
prim	-10.7826
▁posé	-10.783
▁procès	-10.783
étant	-10.7832
▁évaluation	-10.7832
▁populations	-10.7833
▁épouse	-10.7838
▁différente	-10.7841
▁rues	-10.7844
▁constat	-10.7849
▁digne	-10.785
▁favorable	-10.7852
▁Taille	-10.7852
▁modifications	-10.7853
▁Vénus	-10.7863
▁Palais	-10.7864
77	-10.7867
arrière	-10.7868
▁collaborateurs	-10.787
▁recevrez	-10.7872
▁acteur	-10.7872
▁implique	-10.7872
issent	-10.7872
Comité	-10.7875
▁éclat	-10.7876
▁manifestation	-10.7876
▁Voyage	-10.7877
▁compléter	-10.7881
▁quitte	-10.7884
▁poudre	-10.7884
▁attendu	-10.7885
omp	-10.7888
▁résumé	-10.7889
▁label	-10.789
tom	-10.7892
▁tribunal	-10.7895
▁alimentaires	-10.7897
▁ras	-10.79
▁dents	-10.79
▁déroule	-10.7905
▁Pri	-10.7905
▁Fr	-10.7907
▁amené	-10.7908
▁cuisson	-10.7916
▁Thomas	-10.7918
92	-10.7922
▁Claude	-10.7926
vol	-10.793
▁douze	-10.7931
Histoire	-10.7936
exécution	-10.7936
▁grille	-10.7943
lou	-10.7943
▁mobilier	-10.7948
▁Lille	-10.7949
▁Em	-10.7952
▁conflit	-10.7955
▁Travail	-10.7956
▁endroits	-10.7958
agne	-10.7958
emp	-10.7961
▁pic	-10.7961
▁internautes	-10.7961
▁FR	-10.7965
phone	-10.7966
▁transition	-10.7967
▁réglementation	-10.7968
▁Données	-10.7969
▁représentent	-10.7969
▁favoriser	-10.7973
▁monnaie	-10.7973
astrologie	-10.7977
▁Appel	-10.7978
▁civil	-10.798
Octobre	-10.7981
▁matchs	-10.7985
.»	-10.7989
▁rupture	-10.799
alis	-10.7991
oux	-10.7991
▁finition	-10.7995
▁payant	-10.7997
▁négatif	-10.7997
lar	-10.7998
▁références	-10.7999
élé	-10.8002
nov	-10.8002
▁allemand	-10.8004
▁strictement	-10.8005
ouche	-10.8005
gra	-10.8005
ji	-10.8008
▁progrès	-10.8011
54	-10.8012
▁fuite	-10.8017
▁relève	-10.8019
▁Celle	-10.8022
▁disposer	-10.8023
▁Ya	-10.8025
doc	-10.8026
88	-10.8026
▁natal	-10.8027
impact	-10.803
▁jardins	-10.8031
▁Hier	-10.8031
mal	-10.8033
▁Charte	-10.8034
58	-10.8039
▁souple	-10.8041
▁retrouvez	-10.8048
▁feuille	-10.8048
▁manifestations	-10.8049
▁aimer	-10.8052
▁Pluton	-10.8052
▁ressource	-10.8055
▁Dan	-10.8055
▁physiques	-10.8059
▁plafond	-10.8062
▁ballon	-10.8063
ok	-10.8063
-2018	-10.8063
nne	-10.8064
▁Certaines	-10.8068
gh	-10.8068
▁adaptées	-10.8076
▁..	-10.8079
î	-10.8083
▁dame	-10.8083
▁cellules	-10.8087
éli	-10.8088
▁(15)	-10.8088
▁confirmer	-10.8094
▁vivent	-10.8096
▁Cre	-10.8097
▁commander	-10.81
ct	-10.8101
▁sports	-10.8104
▁féminin	-10.8107
▁Ali	-10.8107
Mars	-10.8109
olo	-10.8111
47	-10.8113
informatique	-10.8113
▁Parlement	-10.8113
▁semi	-10.8113
▁positif	-10.8114
▁appartiennent	-10.8117
mn	-10.8117
MO	-10.8118
2012	-10.8119
▁plages	-10.8125
▁résoudre	-10.8127
▁répondu	-10.8129
▁issus	-10.8133
oi	-10.8139
▁discussions	-10.8139
▁recherchez	-10.8139
▁Genève	-10.814
▁escort	-10.8142
▁désactivé	-10.8144
intégration	-10.8147
nerie	-10.8149
▁Livres	-10.8149
▁ressemble	-10.8149
gle	-10.8149
▁Va	-10.815
▁organiser	-10.8151
lio	-10.8151
76	-10.8157
▁relatif	-10.8159
▁filtre	-10.8162
▁préserver	-10.8164
–	-10.8167
ég	-10.8168
rain	-10.817
FR	-10.817
▁susceptible	-10.8171
▁fiable	-10.8177
roy	-10.818
▁apprend	-10.818
▁massif	-10.818
▁phrase	-10.8182
▁testé	-10.8182
▁économie	-10.8184
▁Informations	-10.8191
▁proposant	-10.8195
▁voyant	-10.82
7)	-10.82
▁équipé	-10.8205
▁extra	-10.8209
▁gagne	-10.821
▁Règlement	-10.8213
nette	-10.8213
▁récente	-10.8215
of	-10.8216
cro	-10.8217
▁tâche	-10.8217
▁Titre	-10.8221
vert	-10.8226
▁paraît	-10.8229
▁lunettes	-10.8231
▁déplacement	-10.8232
▁maintenance	-10.8236
▁laboratoire	-10.8236
▁pistes	-10.8237
▁souhaitent	-10.824
DE	-10.824
UT	-10.824
▁constituent	-10.824
▁inscrits	-10.8243
▁Tunisie	-10.8246
▁nez	-10.8249
▁na	-10.825
aurait	-10.8252
ute	-10.8254
venu	-10.8254
▁partagé	-10.8257
▁pousse	-10.8264
▁foot	-10.8265
▁Syrie	-10.8277
▁Don	-10.8279
▁condamné	-10.828
▁Max	-10.8282
éni	-10.8284
▁référencement	-10.8285
▁Ciel	-10.8285
▁historiques	-10.8292
ich	-10.8295
▁légende	-10.8295
▁quasiment	-10.8298
▁réserver	-10.8303
▁augmentation	-10.8303
ifs	-10.8309
ral	-10.8311
▁Men	-10.8311
▁permanente	-10.8312
▁concentration	-10.8313
▁att	-10.8316
ège	-10.8316
▁charte	-10.8321
ivre	-10.8324
▁soeur	-10.8325
▁circonstances	-10.8326
▁vocation	-10.8326
▁USA	-10.8327
ED	-10.8328
top	-10.8329
▁villa	-10.8329
activités	-10.8329
ves	-10.8335
agriculture	-10.834
▁transmettre	-10.8342
▁modifié	-10.8342
enne	-10.8344
▁poly	-10.8348
▁éco	-10.8352
▁laissant	-10.8352
▁We	-10.8353
▁industriel	-10.8354
▁panneau	-10.8356
▁Bra	-10.836
▁Location	-10.836
Fi	-10.836
▁estime	-10.836
2013	-10.8361
▁(6	-10.8366
▁fiches	-10.8368
√	-10.837
▁(18	-10.8375
▁mousse	-10.8377
▁agences	-10.8377
▁classé	-10.8379
▁vertu	-10.838
▁Rue	-10.8381
▁fo	-10.8382
▁Red	-10.8387
▁signification	-10.8393
▁sensation	-10.8394
Avril	-10.8395
bout	-10.8397
ü	-10.8397
▁cave	-10.8401
▁comprends	-10.8406
▁poésie	-10.8408
hal	-10.8408
▁star	-10.8408
▁Amérique	-10.841
Orient	-10.8411
iner	-10.8412
ération	-10.8413
▁populaires	-10.8414
sis	-10.8416
▁promotions	-10.8416
▁OK	-10.842
▁triste	-10.8421
autorisation	-10.8422
▁quelconque	-10.8423
▁plante	-10.8426
▁Lien	-10.8427
▁rayon	-10.8428
▁secrets	-10.8429
position	-10.8431
Espace	-10.8433
▁expliqué	-10.8434
▁naturelles	-10.8435
▁plaque	-10.8438
▁global	-10.8439
▁combinaison	-10.8441
▁disait	-10.8441
anti	-10.8441
▁annuel	-10.8442
adapter	-10.8442
▁légale	-10.8446
▁trente	-10.8446
74	-10.845
▁Demande	-10.8452
▁canapé	-10.8452
▁quelles	-10.8453
68	-10.8453
▁bienvenue	-10.8454
ède	-10.8456
▁mat	-10.8456
▁confirmé	-10.8457
▁rejoint	-10.8458
▁plu	-10.8459
▁siècles	-10.846
▁maternelle	-10.846
▁poitrine	-10.8462
▁Patrick	-10.8462
▁pause	-10.8464
▁Liste	-10.8467
ero	-10.8468
ambiance	-10.8472
▁Ber	-10.8472
press	-10.8472
▁boulot	-10.8473
cor	-10.8473
MP	-10.8478
▁écouter	-10.8479
▁adresses	-10.8483
▁viol	-10.8486
▁décider	-10.849
▁mobiles	-10.8492
Amérique	-10.8495
57	-10.8495
dique	-10.8496
▁Hor	-10.85
die	-10.85
▁Montrer	-10.8501
▁doté	-10.8503
▁fixé	-10.8505
▁taxe	-10.8506
UM	-10.8507
Juillet	-10.851
illard	-10.851
▁etre	-10.8511
▁colle	-10.8512
▁poursuit	-10.8512
▁éditions	-10.8518
▁extrait	-10.8521
eg	-10.8527
▁financières	-10.8533
humour	-10.8533
▁abonnement	-10.8533
ink	-10.8535
▁invité	-10.8536
▁disparition	-10.8538
Septembre	-10.8539
rés	-10.854
▁devons	-10.8541
▁Communauté	-10.8541
▁caméra	-10.8541
▁graphiques	-10.8541
▁Rou	-10.8548
▁paragraphe	-10.855
93	-10.8551
▁TVA	-10.8551
▁équipement	-10.8552
▁tâches	-10.8552
▁coque	-10.8553
▁banques	-10.8555
▁île	-10.8556
album	-10.8558
▁fameux	-10.8558
▁Juin	-10.856
▁pat	-10.8562
▁faisons	-10.8563
▁foyer	-10.8564
67	-10.8575
▁tiens	-10.8578
▁repris	-10.8581
▁prépare	-10.8582
élève	-10.8587
▁Luxembourg	-10.8589
▁show	-10.8592
GE	-10.8597
lip	-10.8599
▁dimensions	-10.86
▁cr	-10.86
ium	-10.86
▁humide	-10.8601
elli	-10.8602
mor	-10.8607
▁beurre	-10.8608
▁Ceux	-10.8609
▁Épisode	-10.861
▁Commerce	-10.8614
Saint	-10.8615
▁béton	-10.8617
96	-10.8618
PI	-10.8621
▁exclu	-10.8621
▁étudiant	-10.8623
▁vo	-10.8623
ordinateur	-10.8624
▁Film	-10.8624
▁psychologique	-10.8625
▁sondage	-10.8626
▁Aucune	-10.8626
▁constater	-10.8627
▁candidature	-10.8628
▁liée	-10.8632
▁pal	-10.8633
▁chances	-10.8635
leur	-10.8636
▁conducteur	-10.8639
▁Cat	-10.8643
2014	-10.8643
▁sérieuse	-10.8643
98	-10.8644
ente	-10.8647
▁conclu	-10.865
illant	-10.8652
ettes	-10.8656
▁bl	-10.866
▁Lui	-10.8662
omb	-10.8665
▁emplacement	-10.8667
▁afficher	-10.8668
▁satisfaire	-10.867
▁Ajouter	-10.8673
▁citron	-10.8674
engagement	-10.8674
▁producteurs	-10.8675
▁associés	-10.8676
▁Semaines	-10.8682
but	-10.8683
▁conseillé	-10.8683
▁fortes	-10.869
▁fier	-10.8691
▁considérée	-10.8691
▁ajouté	-10.8691
▁fasse	-10.8694
cou	-10.8696
images	-10.8696
▁MO	-10.8697
▁territoires	-10.8697
▁sauvage	-10.8697
▁âgées	-10.87
5)	-10.8702
sive	-10.8703
▁bloc	-10.8703
ITE	-10.8703
Juin	-10.8705
▁im	-10.8707
▁conversation	-10.8711
▁clavier	-10.8711
▁refuser	-10.8711
97	-10.8717
événement	-10.8721
igny	-10.8722
▁Lunettes	-10.8724
▁Animaux	-10.8727
▁my	-10.8727
stra	-10.8735
Août	-10.8737
▁Ren	-10.8738
erreur	-10.8739
ots	-10.874
▁internationaux	-10.8743
ides	-10.8744
▁Ass	-10.8745
▁accompagne	-10.8748
▁64	-10.8749
▁promo	-10.8751
hôpital	-10.8755
87	-10.8756
▁Vendredi	-10.8756
rÃ	-10.8762
▁Montpellier	-10.8763
▁heureuse	-10.8763
▁priorité	-10.8765
▁africaine	-10.8766
▁Communication	-10.8766
SP	-10.8767
▁Eco	-10.8767
▁Réseau	-10.8771
▁publiée	-10.8781
▁49	-10.8781
▁Situé	-10.8782
▁débats	-10.8783
▁permanence	-10.8785
▁Septembre	-10.8786
▁premierLe	-10.8787
▁ð	-10.879
▁CGU	-10.8793
sous	-10.8794
▁former	-10.8795
box	-10.8805
▁âme	-10.8807
bri	-10.8808
▁élégant	-10.8809
▁traditionnel	-10.881
Église	-10.8813
▁tué	-10.8814
▁mor	-10.8816
▁chic	-10.8816
▁vir	-10.8818
▁moteurs	-10.8818
▁malade	-10.882
▁concerts	-10.8823
▁Agence	-10.8824
▁q	-10.8824
▁trace	-10.8825
approche	-10.8826
lam	-10.8827
immobilier	-10.8827
▁équilibre	-10.8832
▁rapides	-10.8833
cus	-10.8834
▁800	-10.8834
▁Tar	-10.8834
▁norme	-10.8837
€¦	-10.8842
▁pierres	-10.8843
▁voies	-10.8843
▁cookie	-10.8846
▁Croix	-10.8846
▁live	-10.8847
▁Fond	-10.8849
▁quartiers	-10.8851
▁louer	-10.8853
▁Source	-10.8853
mètre	-10.8857
▁boutons	-10.8858
▁tire	-10.8858
▁sportive	-10.8859
pat	-10.886
▁fusion	-10.886
▁Lorsqu	-10.8861
▁Meuble	-10.8863
▁trajet	-10.8867
are	-10.8868
▁Îles	-10.8868
▁promouvoir	-10.8871
▁pl	-10.8872
▁Israël	-10.8875
▁clubs	-10.8876
▁développe	-10.8878
▁module	-10.8879
72	-10.8883
▁dizaines	-10.8883
▁ajoute	-10.8884
▁filière	-10.8884
affiche	-10.8884
imi	-10.8887
▁bonjour	-10.889
mas	-10.8891
▁évoluer	-10.8891
▁panne	-10.8894
69	-10.8895
ajouter	-10.8895
▁placer	-10.8896
▁Divers	-10.8897
king	-10.8903
▁vé	-10.8905
▁sex	-10.8905
tron	-10.8906
▁Marine	-10.8907
ore	-10.8911
▁sombre	-10.8911
▁utilisent	-10.8912
▁traces	-10.8913
▁...)	-10.8913
▁sauce	-10.8913
▁(16)	-10.8919
avaient	-10.892
din	-10.892
▁variété	-10.8921
ath	-10.8925
▁em	-10.8927
▁traditionnelles	-10.8928
xi	-10.8932
Ad	-10.8937
▁girl	-10.8937
▁agricole	-10.8937
iti	-10.8938
nce	-10.8941
▁perspective	-10.8941
ish	-10.8944
appliquer	-10.8944
▁Mur	-10.8944
▁connaitre	-10.8946
▁gras	-10.895
uit	-10.8952
▁virus	-10.8952
▁bière	-10.8956
▁obligations	-10.8958
uck	-10.8958
▁média	-10.896
‘	-10.896
appartement	-10.8962
▁judiciaire	-10.8965
▁industrielle	-10.8967
way	-10.8968
rig	-10.897
▁jambes	-10.897
▁lèvres	-10.8971
▁u	-10.8973
fic	-10.8973
initiative	-10.8976
▁foule	-10.8977
▁nationales	-10.8979
▁parvenir	-10.8981
coup	-10.8981
abonnement	-10.8982
tien	-10.8983
▁Corée	-10.8983
cur	-10.8983
71	-10.8984
▁monte	-10.8984
▁épi	-10.8986
▁titulaire	-10.8986
zo	-10.8987
ignon	-10.8989
▁grève	-10.8992
▁ordinaire	-10.8992
▁mg	-10.8994
niste	-10.8996
86	-10.8997
▁urbaine	-10.8999
▁chanteur	-10.9
automne	-10.9002
aéroport	-10.9004
▁US	-10.9004
▁Galerie	-10.9005
▁totalité	-10.9008
▁Vincent	-10.9009
▁Georges	-10.9014
▁Dépêches	-10.9014
▁Mercure	-10.9014
▁métro	-10.9016
▁performant	-10.9016
▁fantastique	-10.9018
▁critiques	-10.9018
▁Annonce	-10.9019
▁Bibliothèque	-10.9021
▁masque	-10.9021
del	-10.9023
▁individus	-10.9024
▁Za	-10.9031
espoir	-10.9031
▁maximale	-10.9031
▁André	-10.9032
hon	-10.9035
▁éventuellement	-10.9035
▁Chaussures	-10.9036
▁pouvoirs	-10.9036
issa	-10.9047
eo	-10.9047
▁Transport	-10.9048
▁thèse	-10.9048
▁propriétés	-10.9048
▁préparé	-10.9051
▁accueilli	-10.9051
▁inspiré	-10.9053
▁mentale	-10.9054
▁Microsoft	-10.9055
▁Mat	-10.9061
▁ğŸ	-10.9062
▁lis	-10.9063
-18	-10.9065
▁Henri	-10.9068
▁Test	-10.9071
▁47	-10.9073
▁traitements	-10.9075
▁édité	-10.9076
fu	-10.908
▁tchat	-10.9081
▁balade	-10.9082
▁joint	-10.9082
▁quels	-10.9082
ors	-10.9084
▁Nu	-10.9086
▁voudrais	-10.9087
▁Rhône	-10.9087
▁découvertes	-10.9087
▁défini	-10.909
▁normale	-10.9093
▁gentil	-10.9095
excellent	-10.9095
▁haine	-10.9096
▁collègues	-10.9096
▁venus	-10.9103
▁ép	-10.9104
Et	-10.9105
Mo	-10.9106
ifié	-10.9107
▁blancs	-10.9107
gent	-10.9108
▁avenir	-10.9109
▁bandes	-10.9111
▁exprimé	-10.9115
▁comprenant	-10.9118
fil	-10.912
▁Bé	-10.9121
▁Tags	-10.9121
Mon	-10.9123
▁termine	-10.9126
79	-10.9127
▁signaler	-10.9127
▁contente	-10.9127
▁salaire	-10.9129
Février	-10.9132
▁regroupe	-10.9135
▁évident	-10.9135
nger	-10.9136
▁adore	-10.9136
▁marge	-10.9137
▁documentaire	-10.9143
▁déposer	-10.9144
▁nov	-10.9144
envie	-10.9144
euil	-10.9149
▁Rendez	-10.9149
assi	-10.9152
▁vendu	-10.9153
▁fabricant	-10.9154
▁communications	-10.9155
IQUE	-10.9158
▁mène	-10.9158
INE	-10.9158
main	-10.9168
avoue	-10.917
▁défis	-10.9177
Novembre	-10.9177
”.	-10.9182
▁Type	-10.9183
▁difficiles	-10.9188
▁fidélité	-10.9188
▁passionnés	-10.9189
▁immobilière	-10.9191
ung	-10.9193
ulation	-10.9195
▁civilisation	-10.9198
▁journées	-10.92
page	-10.9202
▁Grèce	-10.9204
œil	-10.9207
▁SP	-10.9207
▁destinés	-10.9208
effort	-10.9209
▁↑	-10.9212
▁animations	-10.9219
▁Fe	-10.9219
Janvier	-10.9219
▁salarié	-10.922
▁profils	-10.9221
▁profite	-10.9223
▁1995	-10.9227
▁reprises	-10.9232
▁ciblage	-10.9233
▁so	-10.9234
tré	-10.9235
▁bourse	-10.9237
-4	-10.9237
istique	-10.9238
▁régler	-10.9238
Hôtel	-10.9241
assistance	-10.9241
▁pédagogique	-10.9241
gène	-10.9243
▁Wa	-10.9249
▁fauteuil	-10.925
nn	-10.9251
viv	-10.9255
uy	-10.9258
▁réalisés	-10.9258
IER	-10.9259
▁Octobre	-10.9263
ibilité	-10.9264
▁Nombre	-10.9264
▁prévenir	-10.9266
▁claire	-10.9268
▁dizaine	-10.927
OUR	-10.9272
ssez	-10.9275
azi	-10.9276
mili	-10.9277
▁Rapport	-10.9277
▁54	-10.9277
▁stars	-10.9289
arbre	-10.9289
▁trou	-10.9289
ring	-10.9294
▁contacts	-10.9295
ives	-10.9299
▁Référence	-10.9302
ances	-10.9302
▁connus	-10.9307
▁Système	-10.9309
▁ouvrages	-10.931
ash	-10.9311
▁trucs	-10.9324
▁vues	-10.9326
prix	-10.9326
▁repose	-10.9326
ys	-10.9326
oeil	-10.9327
▁puissent	-10.9329
échelle	-10.9329
▁Ag	-10.933
▁attitude	-10.9333
▁App	-10.9333
bin	-10.9334
▁tube	-10.9336
.....	-10.9336
53	-10.9338
▁not	-10.9348
▁trait	-10.9355
▁(«	-10.9357
▁correspondent	-10.9359
▁frontière	-10.9362
▁Commande	-10.9365
▁supprimé	-10.9367
▁imprimé	-10.9367
venir	-10.9367
▁guitare	-10.9369
▁Inde	-10.9373
usine	-10.9373
▁Qualité	-10.9375
▁Bac	-10.9377
▁puissiez	-10.9378
articles	-10.9378
▁fournit	-10.9382
▁vague	-10.9384
accompagnement	-10.9384
infos	-10.9385
▁Att	-10.9389
▁chèque	-10.9391
▁savait	-10.9392
▁précédente	-10.9394
▁catholique	-10.9394
▁CH	-10.9395
▁arabes	-10.9396
▁américains	-10.9396
▁folie	-10.9397
▁terrible	-10.9398
▁préciser	-10.94
▁Visite	-10.9401
▁chômage	-10.9405
▁randonnée	-10.9405
▁mani	-10.9409
▁bol	-10.9409
▁planétaires	-10.9413
▁incontournable	-10.9414
▁pub	-10.9414
cept	-10.9415
▁exposé	-10.9417
▁mont	-10.9419
▁War	-10.942
▁profonde	-10.942
▁réfléchir	-10.942
çon	-10.9421
▁62	-10.9421
gne	-10.9422
pha	-10.9423
▁présentent	-10.9424
▁présentés	-10.9426
▁compliqué	-10.9426
dent	-10.9427
lés	-10.9427
▁mourir	-10.9427
▁mono	-10.9427
▁législation	-10.9432
yo	-10.9436
▁affirme	-10.9437
▁espagnol	-10.9438
▁tendre	-10.9439
not	-10.9443
attente	-10.9444
oreille	-10.9445
DS	-10.9445
▁tranquille	-10.9446
▁disant	-10.9446
▁rarement	-10.9446
▁Bro	-10.9447
▁comportements	-10.945
▁aliments	-10.9452
▁ème	-10.9452
√¥	-10.9456
AG	-10.946
▁72	-10.9464
▁miroir	-10.9467
EA	-10.9468
▁volant	-10.9469
▁prochaines	-10.9472
▁empêcher	-10.9472
▁contribuer	-10.9473
▁:)	-10.9475
▁52	-10.9475
MI	-10.9477
▁pensées	-10.9478
▁créativité	-10.9478
▁Sh	-10.9478
avion	-10.9478
▁facebook	-10.9479
▁Free	-10.9484
▁sacs	-10.9484
▁folle	-10.9485
agère	-10.9486
▁Peu	-10.9487
▁Mali	-10.9494
▁Ste	-10.9496
!)	-10.9497
▁Janvier	-10.9499
94	-10.9501
▁iPhone	-10.9501
▁Offre	-10.9502
équipement	-10.9505
cad	-10.9509
▁humeur	-10.9511
51	-10.9514
uis	-10.9515
‚	-10.9518
emplacement	-10.952
▁geste	-10.9521
▁entourage	-10.9525
▁espoir	-10.953
▁And	-10.9531
▁souligne	-10.9532
▁notice	-10.9533
▁ludique	-10.9535
▁voisins	-10.9538
ards	-10.9539
▁bête	-10.9539
▁lourd	-10.954
cien	-10.9543
▁dirige	-10.9543
matique	-10.9543
Homme	-10.9545
▁Cl	-10.9546
▁décroissant	-10.9547
années	-10.9548
▁évoque	-10.9548
▁pique	-10.9552
▁couper	-10.9552
▁pure	-10.9552
▁record	-10.9555
gues	-10.9558
▁Bri	-10.9558
▁Dernières	-10.956
▁fine	-10.9566
applique	-10.9568
▁dite	-10.9569
work	-10.9571
▁IN	-10.9573
▁compatible	-10.9573
▁95	-10.9575
ature	-10.9576
▁remarque	-10.9576
▁race	-10.9578
rine	-10.9581
▁remarquable	-10.9581
▁Dimanche	-10.9582
▁diplôme	-10.9583
▁Vit	-10.9585
UP	-10.9585
mb	-10.9586
▁synthèse	-10.9586
▁Spa	-10.9591
NA	-10.9594
▁division	-10.9594
▁Amazon	-10.9596
acquisition	-10.9598
▁citer	-10.9599
▁appelée	-10.96
▁îles	-10.9601
él	-10.9606
▁Modèle	-10.9608
▁recommandations	-10.9611
▁modernes	-10.9612
▁Météo	-10.9612
aspect	-10.9613
▁venait	-10.9614
▁chauffe	-10.9615
▁World	-10.9615
gré	-10.9616
▁Face	-10.9619
▁terminer	-10.9622
▁Mel	-10.9623
▁musulmans	-10.9623
▁Samsung	-10.9625
ssement	-10.9628
▁Toujours	-10.9628
lor	-10.9629
▁permettront	-10.9634
▁électroniques	-10.9634
▁Cinéma	-10.9636
▁urgence	-10.9637
▁Kit	-10.9637
▁marine	-10.9638
▁feront	-10.9639
▁Turquie	-10.9641
91	-10.9643
▁récompense	-10.9643
▁canton	-10.9644
▁News	-10.9645
atives	-10.9646
▁personnalisée	-10.9647
▁1990	-10.9647
▁normalement	-10.9648
▁Ten	-10.9648
▁secours	-10.9649
▁sp	-10.9649
▁violent	-10.9649
aison	-10.9651
▁Newsletter	-10.9654
▁relevé	-10.9655
52	-10.9655
▁fermé	-10.9656
▁verra	-10.9656
▁conforme	-10.9657
▁fournis	-10.9657
▁expertise	-10.966
▁pommes	-10.9663
▁réalisateur	-10.9664
▁autonome	-10.9664
▁You	-10.9665
ANT	-10.967
▁tuer	-10.9671
iennes	-10.9671
▁UN	-10.9673
▁chers	-10.9674
ator	-10.9675
lus	-10.9676
▁Prenez	-10.9681
▁traitées	-10.9686
▁Nations	-10.9686
▁manga	-10.9689
а	-10.969
▁chevaux	-10.969
ical	-10.9692
▁gagnant	-10.9694
▁terres	-10.9694
▁van	-10.9695
SC	-10.9695
▁éducation	-10.9696
▁Bl	-10.9699
▁er	-10.97
▁grain	-10.9702
▁Ram	-10.9703
▁Avril	-10.9704
▁cool	-10.9704
▁conscient	-10.9705
▁moral	-10.9705
▁tombé	-10.9707
▁restant	-10.9712
▁pétrole	-10.9712
▁Cho	-10.9712
emb	-10.9712
▁régulière	-10.9715
▁conte	-10.9716
▁optique	-10.9717
▁comparaison	-10.9718
enfance	-10.9721
ouff	-10.9727
udi	-10.9728
▁symbole	-10.9729
plan	-10.9731
▁passent	-10.9732
▁facilité	-10.9733
entreprises	-10.9734
▁Roi	-10.9734
▁coûte	-10.9737
▁récent	-10.9737
adaptation	-10.9738
▁versions	-10.9739
▁One	-10.9739
sans	-10.9743
for	-10.9744
▁Revue	-10.9744
▁salut	-10.9744
RES	-10.9745
▁Olivier	-10.9745
▁personnalisés	-10.9746
▁dommages	-10.9748
blog	-10.975
▁composants	-10.975
▁quatrième	-10.9753
-3	-10.9754
▁Marque	-10.9756
▁ES	-10.9756
▁MAR	-10.9757
▁Vers	-10.9758
▁forfait	-10.9759
▁auparavant	-10.9759
dra	-10.9763
▁Ham	-10.9765
individu	-10.9772
ary	-10.9773
▁talents	-10.9774
apprendre	-10.9774
▁soirées	-10.9775
▁royaume	-10.9776
ain	-10.9777
▁puissante	-10.9778
mission	-10.9782
▁(4	-10.9782
▁ressenti	-10.9784
▁fonctionnalité	-10.9784
▁Pla	-10.9785
▁codes	-10.9785
▁fallu	-10.9785
▁MA	-10.9786
▁volet	-10.9787
▁Emploi	-10.9788
▁économies	-10.9788
▁gueule	-10.9789
84	-10.979
▁ménage	-10.9792
`	-10.9795
▁garantit	-10.9795
▁grosses	-10.9795
▁Big	-10.9797
▁archives	-10.9797
▁Maître	-10.9798
▁éclair	-10.9798
▁Nature	-10.9798
▁pseudo	-10.98
▁futurs	-10.9801
▁Outre	-10.9801
RC	-10.9802
▁européennes	-10.9803
▁photographies	-10.9804
ève	-10.9805
▁trimestre	-10.9806
▁échéant	-10.9808
hésite	-10.9809
▁data	-10.981
▁VO	-10.9816
lien	-10.9816
▁Eric	-10.9822
▁inutile	-10.9823
▁complémentaires	-10.9823
▁coiffure	-10.9825
▁Jeudi	-10.9826
aliste	-10.9826
▁précieux	-10.9828
▁cam	-10.983
▁considère	-10.9835
bien	-10.9836
toi	-10.9836
▁euro	-10.9837
▁casque	-10.9839
▁envies	-10.9839
▁pauvre	-10.9845
▁chargée	-10.9847
▁Front	-10.9847
équilibre	-10.9853
▁Â	-10.9854
▁Congo	-10.9857
▁Ton	-10.9858
▁(18)	-10.9858
▁IV	-10.986
▁collectées	-10.9863
▁répartition	-10.9864
▁Ke	-10.9867
▁plume	-10.9868
▁bénéficie	-10.9871
voy	-10.9873
▁producteur	-10.9873
▁partielle	-10.9875
▁révolutionnaire	-10.9876
▁rétro	-10.9876
▁adopté	-10.9877
lt	-10.988
▁offerts	-10.988
▁Hôtel	-10.9883
▁attaque	-10.9883
▁dépannage	-10.9884
▁féminine	-10.9886
ssage	-10.9888
adi	-10.9889
▁témoignages	-10.989
▁Op	-10.989
hébergement	-10.9894
▁existence	-10.9895
▁apprécier	-10.9898
▁1997	-10.9899
terie	-10.99
▁dép	-10.991
cité	-10.9912
▁accepte	-10.9915
▁canal	-10.9917
▁donnera	-10.992
▁franc	-10.9923
over	-10.9929
▁autorisé	-10.9931
vienne	-10.9931
cas	-10.9932
▁destruction	-10.9933
▁publie	-10.9933
▁Juillet	-10.9936
▁fenêtres	-10.9936
▁carré	-10.9938
▁FC	-10.9938
▁répertoire	-10.9941
▁allemande	-10.9941
▁drogue	-10.9941
hor	-10.9946
fér	-10.9948
temps	-10.9952
inspiration	-10.9952
▁profitez	-10.9955
▁huile	-10.9956
82	-10.9957
ige	-10.9958
ius	-10.9959
▁gardien	-10.9963
▁provenant	-10.9963
▁couples	-10.9965
els	-10.9965
fo	-10.9971
▁protège	-10.9971
▁trompe	-10.9972
accéder	-10.9974
▁romantique	-10.9975
▁Stéphane	-10.9975
kh	-10.9977
▁secondaire	-10.9978
▁disponibilités	-10.998
▁soupe	-10.998
▁recommandons	-10.998
▁inférieur	-10.9983
▁Trouvez	-10.9983
TA	-10.9986
▁Cas	-10.9987
▁discipline	-10.9989
▁vari	-10.999
▁artisans	-10.999
ð	-10.9993
▁tissus	-10.9995
▁Portugal	-10.9995
▁conjoint	-10.9997
▁queue	-11
▁pin	-11
-5	-11.0004
vez	-11.0005
oph	-11.0005
card	-11.0006
acteur	-11.0007
▁51	-11.0008
▁Akismet	-11.001
▁croit	-11.0011
Plus	-11.0019
pu	-11.002
▁Pascal	-11.0022
▁poissons	-11.0022
ogne	-11.0022
▁finit	-11.0025
▁concernent	-11.0028
▁Public	-11.0033
dom	-11.0033
▁op	-11.0035
▁conformité	-11.0037
▁culturelles	-11.0037
▁ventre	-11.0037
aba	-11.0039
▁député	-11.0042
▁Antoine	-11.0042
▁crédits	-11.0044
▁efficacité	-11.0045
▁devriez	-11.0047
tz	-11.0047
▁semblait	-11.0048
▁Richard	-11.0049
wer	-11.0049
ann	-11.0052
angle	-11.0053
▁rep	-11.0054
▁Questions	-11.0055
▁Royal	-11.0057
▁limitation	-11.0057
act	-11.0058
Po	-11.0059
chu	-11.0061
▁promet	-11.0063
▁socio	-11.0065
▁Jupiter	-11.0066
▁pen	-11.0066
▁péri	-11.0069
▁ber	-11.0072
▁Frédéric	-11.0072
Paul	-11.0074
▁compétence	-11.0075
acheteur	-11.0076
▁déposée	-11.0078
▁soldats	-11.0078
▁Pou	-11.008
▁prince	-11.0084
▁efficaces	-11.0085
pp	-11.0085
hou	-11.0087
▁LLC	-11.0088
▁roulant	-11.0093
▁fondé	-11.0094
▁gel	-11.0094
▁refuse	-11.0096
▁consacrée	-11.0098
taire	-11.01
▁apport	-11.0101
▁frontières	-11.0101
▁parisienne	-11.0103
pit	-11.0103
о	-11.0104
orient	-11.0105
▁validation	-11.0105
▁exercices	-11.0105
▁industriels	-11.0105
▁resté	-11.0106
▁secondaires	-11.0107
▁Euro	-11.0107
▁enseigne	-11.0111
▁Julien	-11.0112
▁instrument	-11.0125
▁Han	-11.0125
▁chronique	-11.0127
▁visité	-11.0129
▁pension	-11.013
▁”	-11.013
▁PME	-11.0131
Ro	-11.0133
isser	-11.0136
TO	-11.0137
▁assuré	-11.0137
▁Jeu	-11.0138
▁publications	-11.0139
▁cote	-11.0139
▁spectacles	-11.014
▁assurez	-11.0142
▁Hi	-11.0143
▁contrairement	-11.0143
▁peuples	-11.0145
▁contraintes	-11.0145
▁chi	-11.0149
▁quitté	-11.0149
▁amateur	-11.015
▁investi	-11.0151
▁origines	-11.0152
aga	-11.0152
▁documentation	-11.0152
▁inconnu	-11.0152
▁environnemental	-11.0153
ski	-11.0153
▁(5	-11.0154
▁témoignage	-11.0154
▁Tourisme	-11.0159
▁optimisé	-11.0161
lla	-11.0167
500	-11.017
▁souris	-11.017
▁Multi	-11.017
▁el	-11.017
▁constructeur	-11.0171
▁connaissent	-11.0173
▁fiscal	-11.0174
oyer	-11.0174
▁id	-11.0176
ky	-11.0178
▁chair	-11.018
▁boire	-11.018
ail	-11.018
effacement	-11.0182
▁familial	-11.0182
▁indiquer	-11.0184
▁chaise	-11.0186
ith	-11.0186
voi	-11.0188
nées	-11.0188
▁Salut	-11.0188
▁visualiser	-11.0188
▁Pu	-11.0189
▁transforme	-11.0189
▁hi	-11.0189
▁comparer	-11.0195
▁postale	-11.0199
isées	-11.0199
▁réputation	-11.0203
▁stable	-11.0203
▁»)	-11.0205
▁essentielles	-11.0206
▁Sauf	-11.0208
▁Open	-11.0209
▁temporaire	-11.0211
▁oeuvres	-11.0212
▁Guy	-11.0217
inte	-11.0218
▁Mil	-11.022
▁Saison	-11.022
▁black	-11.022
▁indispensables	-11.022
égard	-11.0221
▁Vierge	-11.0222
▁énormément	-11.0224
PL	-11.0226
▁Ins	-11.0227
▁déménagement	-11.023
▁analyses	-11.023
▁sortes	-11.0234
éra	-11.0235
intelligence	-11.0235
▁Pin	-11.0237
▁touristique	-11.0238
BA	-11.024
▁lave	-11.0241
vision	-11.0242
TC	-11.0245
▁deviennent	-11.0248
▁avais	-11.0249
▁sportives	-11.0249
▁spéciales	-11.0249
▁couture	-11.025
▁porc	-11.0254
▁poète	-11.0254
ements	-11.026
▁intitulé	-11.0264
▁Famille	-11.0267
AY	-11.0271
rom	-11.0271
▁Rennes	-11.0272
nois	-11.0273
▁Che	-11.0275
▁dessert	-11.0276
▁golf	-11.0276
issue	-11.0276
▁émissions	-11.0282
▁applicables	-11.0283
▁boule	-11.0284
place	-11.0285
▁musical	-11.0287
▁photographe	-11.0289
▁socialiste	-11.029
gor	-11.029
▁serre	-11.0291
▁Durant	-11.0293
examen	-11.0293
▁panneaux	-11.0293
▁touché	-11.0296
▁sœur	-11.0297
▁fragile	-11.0301
▁tor	-11.0301
arrêter	-11.0301
▁subi	-11.0304
▁registre	-11.0305
▁fé	-11.0306
celle	-11.0307
▁fondée	-11.0309
▁Comp	-11.0311
▁gars	-11.0311
ney	-11.0312
nay	-11.0313
NI	-11.0319
▁franchise	-11.0321
▁régionale	-11.0327
▁papa	-11.0328
▁applicable	-11.0328
▁révélé	-11.0328
▁commis	-11.0329
spect	-11.0331
▁sûrement	-11.0331
▁minéral	-11.0331
▁enceinte	-11.0332
bour	-11.0332
▁million	-11.0336
▁neuve	-11.0336
hier	-11.0337
▁virtuelle	-11.0339
outil	-11.0339
▁robots	-11.034
▁tables	-11.0341
▁exercice	-11.0341
▁red	-11.0344
▁tentative	-11.0347
▁ru	-11.0348
▁vitre	-11.0351
▁ravis	-11.0351
▁ingrédients	-11.0351
gal	-11.0354
▁supports	-11.0355
▁bleue	-11.0357
▁Sha	-11.0359
▁Bru	-11.036
▁Malheureusement	-11.036
ats	-11.0364
▁Alpes	-11.0365
▁Gratuit	-11.0365
▁passionné	-11.0367
▁avocat	-11.0369
▁bri	-11.037
tement	-11.0376
▁littéraire	-11.0377
▁Utilisez	-11.038
▁administration	-11.0381
rise	-11.0386
rot	-11.0386
activer	-11.0386
▁définitivement	-11.0389
▁Joseph	-11.039
▁convaincu	-11.039
▁finances	-11.0397
tère	-11.0399
amis	-11.04
èse	-11.0403
▁approprié	-11.0407
▁reconnue	-11.0409
▁unités	-11.041
▁investissement	-11.041
hôtes	-11.0411
▁85	-11.0416
COM	-11.0417
▁fraîche	-11.042
▁certificat	-11.0423
▁Dor	-11.0425
▁James	-11.0427
bb	-11.0429
▁prestataires	-11.0431
▁Bain	-11.0434
mois	-11.0434
Ivoire	-11.0435
actions	-11.0438
habitation	-11.0439
sent	-11.044
▁mets	-11.0441
▁fri	-11.0442
▁sûre	-11.0446
	-11.045
▁pack	-11.0452
▁curieux	-11.0461
arrête	-11.0463
bal	-11.0464
CR	-11.0464
▁tenté	-11.0464
▁tiré	-11.0465
▁intervenir	-11.0467
▁56	-11.0468
▁dispositifs	-11.0471
▁salope	-11.0474
▁devrez	-11.0475
▁Fil	-11.0477
▁Mr	-11.0478
guer	-11.0479
▁joindre	-11.048
effectuer	-11.0481
▁(17)	-11.0482
▁(21)	-11.0485
asso	-11.0486
El	-11.0486
▁Cro	-11.0487
▁proposée	-11.0492
/7	-11.0494
▁traits	-11.0495
▁expositions	-11.0496
▁indi	-11.0497
▁spécialisés	-11.0497
▁citoyen	-11.0497
▁brillant	-11.0503
▁rentre	-11.0505
orientation	-11.0506
dd	-11.0507
▁musiciens	-11.0507
nière	-11.0509
uni	-11.051
▁enregistrés	-11.0511
▁échanger	-11.0512
▁Post	-11.0512
▁francophone	-11.0513
▁promotionnelles	-11.0515
change	-11.0517
▁Fleurs	-11.0517
▁chinoise	-11.0517
axe	-11.0518
▁flash	-11.052
ING	-11.0521
▁plonge	-11.0521
▁commerces	-11.0522
▁défend	-11.0524
▁paquet	-11.0526
▁stratégique	-11.0528
ject	-11.0529
mant	-11.0529
▁constaté	-11.0529
▁Neptune	-11.0531
▁Guillaume	-11.0532
▁complexes	-11.0534
tern	-11.0534
▁pourrais	-11.0535
▁Im	-11.0537
▁NO	-11.0538
▁renseigner	-11.0539
▁aventures	-11.0541
▁AS	-11.0545
í	-11.0545
▁culte	-11.0547
▁clic	-11.0551
▁conseillers	-11.0559
IG	-11.0559
▁italienne	-11.0561
▁conçue	-11.0563
fond	-11.0563
▁progressivement	-11.0565
▁auxquels	-11.0566
▁Lot	-11.0568
▁(7	-11.0569
▁DI	-11.0569
▁Show	-11.0569
▁procédures	-11.0573
▁généraux	-11.0574
IV	-11.0575
▁étudié	-11.0576
▁légal	-11.0577
▁causes	-11.0577
▁gal	-11.0581
▁morceau	-11.0583
▁bulletin	-11.0584
▁Data	-11.0585
▁jury	-11.0587
▁simplicité	-11.0588
▁Institut	-11.0588
▁FA	-11.059
▁mobilisation	-11.0591
TMest	-11.0592
▁privées	-11.0593
63	-11.0594
▁génie	-11.0595
Jean	-11.06
▁garçons	-11.0603
intéresse	-11.0604
▁frappe	-11.0605
▁1996	-11.0605
intention	-11.0605
▁terminal	-11.0608
ologique	-11.0609
▁réalisées	-11.061
érant	-11.0611
▁nuits	-11.0614
▁vivement	-11.0615
▁Département	-11.0616
▁coffre	-11.0617
book	-11.0618
▁pauvres	-11.062
▁brut	-11.0622
pic	-11.0624
▁eut	-11.0626
-10	-11.0626
▁magnifiques	-11.0628
naires	-11.0628
▁frein	-11.063
▁May	-11.0632
installe	-11.0637
▁Dou	-11.0637
▁zéro	-11.0638
▁Produit	-11.0639
gl	-11.064
▁Corse	-11.0642
▁sachant	-11.0643
▁mené	-11.0645
▁célébrer	-11.0646
exprimer	-11.0647
▁graisse	-11.0648
tori	-11.0648
▁établir	-11.0649
▁absence	-11.0649
ella	-11.0649
uk	-11.065
utilisateurs	-11.0658
▁occupé	-11.0658
▁correct	-11.066
adoption	-11.0661
atoire	-11.0665
▁villages	-11.0667
Utilisateur	-11.0667
▁Bla	-11.0674
▁asiatique	-11.0676
sch	-11.0678
offres	-11.068
▁orange	-11.0682
olé	-11.0682
▁180	-11.0684
▁déclare	-11.0684
▁GMT	-11.0684
▁Wal	-11.0685
RS	-11.0687
▁schéma	-11.0688
éno	-11.0688
▁résistant	-11.0689
▁exclusives	-11.0689
▁(20)	-11.0689
▁sacré	-11.0692
Présentation	-11.0694
▁chats	-11.0695
AI	-11.0696
CHE	-11.0696
▁tenant	-11.07
...),	-11.0701
▁navigateurs	-11.0702
hommes	-11.0703
▁fondamentale	-11.0705
▁canadien	-11.071
▁Libre	-11.0712
▁existent	-11.0714
▁Villa	-11.0715
▁fondation	-11.0716
VI	-11.0717
▁dépasser	-11.0718
▁assister	-11.0722
▁Uranus	-11.0723
▁Bat	-11.0724
¢	-11.0725
▁routes	-11.0726
▁Hollande	-11.0728
écrire	-11.0728
ura	-11.0729
pri	-11.0729
▁perso	-11.073
▁unité	-11.0731
▁Dar	-11.0731
▁inférieure	-11.0732
▁Ac	-11.0733
▁présentant	-11.0734
▁considérer	-11.0734
alisé	-11.0734
pan	-11.0736
ase	-11.0738
PR	-11.0739
écart	-11.0739
▁lever	-11.0739
▁Mexique	-11.0741
▁urbain	-11.0745
ple	-11.0745
▁pape	-11.0748
pl	-11.0749
▁chimie	-11.0751
▁externe	-11.0752
62	-11.0754
alisme	-11.0755
▁poignée	-11.0761
RO	-11.0762
▁pousser	-11.0763
▁concernés	-11.0764
▁Conf	-11.0765
▁av	-11.0765
dont	-11.0765
▁Plat	-11.0766
▁entraîne	-11.0768
▁bonus	-11.0768
▁honnête	-11.0769
NE	-11.0769
▁Ger	-11.0771
▁divorce	-11.0771
▁battre	-11.0772
▁casse	-11.0775
Eglise	-11.0777
▁sanitaire	-11.0779
▁Pièces	-11.0781
▁dormir	-11.0783
▁68	-11.0783
lig	-11.0783
ulaire	-11.0784
▁cu	-11.0784
▁librairie	-11.0786
▁serveurs	-11.0786
▁correction	-11.0789
▁bro	-11.0791
▁ravi	-11.0791
▁ceinture	-11.0792
▁agricoles	-11.0795
▁oblige	-11.0795
▁individuel	-11.0797
cier	-11.0798
▁Fonction	-11.0798
alo	-11.0799
▁pareil	-11.0799
▁prévoir	-11.08
Se	-11.0802
Ascendant	-11.0802
);	-11.0804
▁préférés	-11.0806
▁Thi	-11.0806
▁Cu	-11.0808
▁obligation	-11.081
char	-11.081
▁varier	-11.0814
▁organisme	-11.0816
▁refaire	-11.0818
▁Fer	-11.0819
▁Far	-11.0819
▁Disney	-11.0821
▁mag	-11.0821
83	-11.0821
▁suivent	-11.0823
▁créateur	-11.0825
ande	-11.0826
▁intégrée	-11.0827
▁participant	-11.0829
nard	-11.083
landais	-11.0831
html	-11.0832
▁amélioration	-11.0835
▁engagée	-11.0836
nisme	-11.0836
▁future	-11.0837
▁jouets	-11.0838
eff	-11.0838
▁dessinée	-11.0838
sky	-11.0838
▁alerte	-11.0838
▁management	-11.084
▁Collection	-11.0841
▁protégée	-11.0842
2015	-11.0842
uz	-11.0843
▁cultures	-11.0846
):	-11.0847
stic	-11.0847
▁Ob	-11.0847
élaboration	-11.0848
▁ph	-11.085
▁raconter	-11.085
▁78	-11.085
cc	-11.0853
▁Mu	-11.0853
▁démarches	-11.0854
âtre	-11.0855
▁élevée	-11.0855
▁Mart	-11.0856
essai	-11.0857
▁croissante	-11.0862
▁égale	-11.0865
▁59	-11.0867
▁franchement	-11.0867
▁visuelle	-11.0867
LES	-11.0869
▁tirage	-11.0871
iale	-11.0872
▁Oh	-11.0876
▁apparence	-11.0878
▁Dom	-11.088
▁bis	-11.0881
▁dévoile	-11.0881
▁cahier	-11.0883
▁Bur	-11.0883
▁piano	-11.0884
▁Orient	-11.0885
▁angle	-11.0886
▁clinique	-11.0887
▁Immobilier	-11.0888
imo	-11.089
▁accorder	-11.0892
▁marcher	-11.0893
cat	-11.0895
▁Dominique	-11.0896
▁Bourse	-11.0897
▁cacher	-11.0901
intégralité	-11.0901
▁Ly	-11.0902
▁solidaire	-11.0903
▁vrais	-11.0903
▁avantage	-11.0905
▁Tur	-11.0905
pr	-11.0905
▁Mod	-11.0907
▁Studio	-11.0911
avi	-11.0913
▁Robe	-11.0913
▁riz	-11.0914
▁devront	-11.0916
▁discret	-11.0918
Ecole	-11.0918
▁Game	-11.0921
▁promis	-11.0922
▁venant	-11.0923
hy	-11.0923
ifiant	-11.0923
▁fatigue	-11.0924
▁(22)	-11.0925
▁Boutique	-11.0927
los	-11.0927
sson	-11.0928
▁accompagnée	-11.0929
St	-11.0931
▁priv	-11.0932
▁palette	-11.0933
▁Adresse	-11.0933
▁connait	-11.0935
laire	-11.0936
▁roues	-11.0936
▁92	-11.0936
Vos	-11.0936
▁symptômes	-11.0937
▁Vidéos	-11.0938
▁exclusive	-11.0942
CP	-11.0944
▁universitaire	-11.0949
▁(19)	-11.095
▁palais	-11.0952
▁Juste	-11.0954
▁Mass	-11.0957
Alpes	-11.0959
▁certifié	-11.0963
▁ti	-11.0964
lev	-11.0965
▁arbre	-11.097
▁arrêter	-11.097
▁bé	-11.0972
▁hé	-11.0972
▁alternative	-11.0976
▁Bre	-11.0978
▁Tel	-11.0979
▁oiseaux	-11.0981
▁élaboré	-11.0983
ume	-11.0984
▁casino	-11.0984
low	-11.0985
▁Chacun	-11.099
▁conservées	-11.0991
▁brevet	-11.0992
▁constituer	-11.0992
▁apporté	-11.0992
▁souplesse	-11.0995
▁Etat	-11.0995
nic	-11.0996
▁consultant	-11.0997
▁émis	-11.0998
▁administrative	-11.0998
▁mine	-11.1
▁poli	-11.1003
▁Hé	-11.1003
▁pharmacie	-11.1004
▁évidence	-11.1004
▁voter	-11.1006
lieu	-11.1006
▁69	-11.1006
81	-11.1006
ILL	-11.1009
EE	-11.1012
▁averti	-11.1012
▁complémentaire	-11.1013
▁(10	-11.1023
accepter	-11.1025
▁Quoi	-11.1028
▁Park	-11.1029
▁Déclaration	-11.103
▁aperçu	-11.1032
▁Play	-11.1033
géné	-11.1034
tér	-11.1034
▁wa	-11.1034
ware	-11.1035
▁accompagnement	-11.1037
▁célibataire	-11.1037
▁biologique	-11.1038
▁façade	-11.104
▁clôture	-11.104
Sa	-11.1041
▁couvert	-11.1041
cf	-11.1042
▁abandonné	-11.1042
▁séminaire	-11.1045
▁boutiques	-11.1047
▁chaine	-11.1048
▁délégué	-11.1051
▁montagnes	-11.1052
▁serais	-11.1055
dic	-11.1056
ö	-11.1057
▁personnellement	-11.1057
▁engagé	-11.1058
▁Asie	-11.1064
▁savons	-11.1064
▁merveilleux	-11.1067
▁générations	-11.1067
▁professeurs	-11.1068
tat	-11.107
dor	-11.107
oto	-11.1071
▁exclusif	-11.1075
▁aiment	-11.1076
▁Tor	-11.1076
tie	-11.1077
▁échelle	-11.1077
▁constante	-11.1078
▁largeur	-11.1082
▁supporter	-11.1082
▁console	-11.1086
▁examen	-11.1089
ther	-11.109
▁bouteille	-11.1091
pir	-11.1091
▁66	-11.1092
▁mineurs	-11.1095
▁pollution	-11.1095
zy	-11.11
▁serrure	-11.1101
▁relais	-11.1102
gram	-11.1103
▁intelligent	-11.1104
▁signal	-11.1106
identification	-11.1109
▁curiosité	-11.1109
73	-11.1109
▁réclamation	-11.1112
▁har	-11.1113
▁140	-11.1114
▁émission	-11.1116
Â	-11.1117
▁tournoi	-11.1117
▁contiennent	-11.1118
▁progression	-11.112
isent	-11.1122
▁expos	-11.1123
▁Four	-11.1124
▁saisons	-11.1129
▁chaleureux	-11.1131
▁livrer	-11.1131
gy	-11.1133
▁forts	-11.1138
atur	-11.114
▁agent	-11.1141
GA	-11.1142
▁librement	-11.1143
▁ram	-11.1144
▁communautés	-11.1145
▁Jack	-11.1147
▁CR	-11.115
▁précisé	-11.1151
▁́t	-11.1152
▁pôle	-11.1153
▁étions	-11.1155
▁Coup	-11.1158
▁balcon	-11.1158
insertion	-11.1159
▁jusque	-11.1159
▁rac	-11.116
▁intégrer	-11.1161
AND	-11.1164
▁tours	-11.1165
▁cl	-11.1166
éditeur	-11.1166
▁requête	-11.1167
▁assis	-11.1168
▁aident	-11.117
▁Flash	-11.1171
▁Denis	-11.1171
obligation	-11.1173
▁arme	-11.1174
uté	-11.1174
▁éclairage	-11.1174
▁alentours	-11.1175
▁prends	-11.1179
▁bite	-11.1181
▁facteur	-11.1184
▁animé	-11.1184
▁chatte	-11.1188
▁psycho	-11.1188
eb	-11.1189
▁étranger	-11.1189
▁Ouest	-11.119
▁compose	-11.1192
agent	-11.1192
▁Music	-11.1193
▁liaison	-11.1193
▁Août	-11.1195
▁remercier	-11.1198
pent	-11.1199
▁mÃame	-11.12
▁ap	-11.1201
▁seins	-11.1205
▁Lundi	-11.1207
▁emplois	-11.1208
▁Bruno	-11.1208
▁présentées	-11.1212
°2	-11.1213
▁garanties	-11.1213
horizon	-11.1214
▁caractères	-11.1216
▁rendement	-11.1218
▁Février	-11.1218
ifie	-11.1219
▁soutenu	-11.1221
identifier	-11.1221
extrême	-11.1223
▁William	-11.1226
▁Tre	-11.1227
rale	-11.1227
▁paraître	-11.1228
▁certification	-11.123
▁onglet	-11.1231
▁sensibles	-11.1231
▁statue	-11.1235
▁Actualité	-11.1235
▁Rock	-11.1236
▁emballage	-11.1237
Ca	-11.1238
duction	-11.1241
▁ouvertes	-11.1242
▁habitudes	-11.1246
çant	-11.125
▁Pol	-11.1251
▁farine	-11.1252
▁Où	-11.1254
grad	-11.1257
▁significations	-11.1258
émo	-11.1258
éo	-11.1259
▁Berlin	-11.1259
▁coloré	-11.126
▁comprennent	-11.126
200	-11.1261
▁news	-11.1261
▁protocole	-11.1263
pli	-11.1264
ANCE	-11.1265
amine	-11.1265
▁travaillent	-11.1266
▁optimiser	-11.1267
▁suivez	-11.1267
web	-11.1268
▁représenter	-11.1269
▁77	-11.1272
▁prévisions	-11.1272
▁MP	-11.1273
▁Gros	-11.1273
▁2020	-11.1277
poli	-11.128
▁couvre	-11.1281
▁doigt	-11.1285
▁prévoit	-11.1285
bol	-11.1287
▁thématiques	-11.1288
▁reconnaît	-11.1288
▁consacre	-11.1289
dan	-11.1289
▁épreuves	-11.129
▁livré	-11.129
61	-11.1291
▁53	-11.1295
▁mental	-11.1297
▁RT	-11.1298
▁CC	-11.1299
▁Ecole	-11.1303
tag	-11.1307
mus	-11.1308
▁relever	-11.1309
▁mutuelle	-11.131
▁municipal	-11.131
▁précédentes	-11.1311
▁constitution	-11.1312
▁exemples	-11.1312
▁stand	-11.1312
dam	-11.1312
▁géo	-11.1313
▁Ok	-11.1316
humain	-11.1323
▁lumineux	-11.1326
chan	-11.1326
▁eff	-11.1327
▁désigné	-11.133
▁connaissez	-11.1331
▁conserve	-11.1332
An	-11.1333
▁réduite	-11.1333
▁Fonds	-11.1333
▁Concours	-11.1335
▁adapter	-11.1337
▁cadres	-11.1337
▁formidable	-11.1337
▁monsieur	-11.1337
▁Matériel	-11.134
▁mentionné	-11.1344
▁diffuser	-11.1344
▁Gouvernement	-11.1346
▁concret	-11.1346
union	-11.1349
▁vérification	-11.135
Qu	-11.1354
▁exprime	-11.1359
personnalisation	-11.1361
▁jeter	-11.1361
▁goûts	-11.1363
▁Générales	-11.1364
▁1980	-11.1365
▁prof	-11.1365
▁sage	-11.1365
▁PA	-11.1366
EMENT	-11.1367
▁City	-11.1368
▁pauvreté	-11.1369
▁étudiante	-11.137
agisse	-11.1374
hr	-11.1375
е	-11.1377
attend	-11.1379
▁coach	-11.138
TER	-11.1381
rite	-11.1386
ieuse	-11.1387
cale	-11.1388
ussi	-11.1392
graphie	-11.1397
▁proportion	-11.1398
tch	-11.1401
▁Décoration	-11.1402
idées	-11.1404
▁ressent	-11.1406
▁serai	-11.1407
▁Fiche	-11.1408
Internet	-11.1409
▁Ãatre	-11.1409
▁Thierry	-11.141
▁Cast	-11.141
▁arrivent	-11.141
▁correspondance	-11.1411
EUR	-11.1412
2011	-11.1415
▁rémunération	-11.1415
indépendance	-11.1416
▁suivie	-11.1416
vet	-11.1418
▁750	-11.1419
logue	-11.142
▁croix	-11.142
▁essais	-11.142
▁administrateur	-11.1421
▁surprises	-11.1424
▁Rem	-11.1424
▁bénévoles	-11.1426
back	-11.1427
▁banc	-11.1431
▁saura	-11.1432
▁sublime	-11.1432
TV	-11.1434
▁règne	-11.1434
▁consommateur	-11.1436
▁réside	-11.1437
▁touristiques	-11.1437
▁Var	-11.1443
▁journaux	-11.1443
inscrit	-11.1444
▁transparence	-11.1445
▁croient	-11.1446
▁bizarre	-11.145
▁♥	-11.1451
▁Environnement	-11.1453
▁Cr	-11.1454
ST	-11.1454
▁miel	-11.1456
▁Domaine	-11.1457
▁officiellement	-11.1458
cia	-11.1458
▁74	-11.1462
▁conversion	-11.1463
▁Thé	-11.1464
▁déplacements	-11.1464
eacute	-11.1464
▁réagir	-11.1465
charge	-11.1466
cup	-11.1466
président	-11.1468
▁Envie	-11.147
aval	-11.147
▁nationaux	-11.1472
igu	-11.1472
▁sagesse	-11.1475
▁rechercher	-11.1478
▁roche	-11.148
▁périodes	-11.148
prise	-11.1482
▁câble	-11.1484
Agence	-11.1485
▁temple	-11.1488
▁administratif	-11.1489
▁climatique	-11.1489
pla	-11.149
augmentation	-11.1491
rog	-11.1493
▁appels	-11.1493
▁maritime	-11.1497
▁Gérard	-11.1499
▁58	-11.15
▁coupé	-11.1502
▁rap	-11.1508
uche	-11.151
Algérie	-11.151
opinion	-11.1513
atte	-11.1513
▁organique	-11.1514
▁présentée	-11.1518
▁apparaître	-11.1519
▁dictionnaire	-11.1519
\'	-11.152
▁considérable	-11.1521
play	-11.1529
▁colloque	-11.153
▁inf	-11.1531
▁privilégié	-11.1534
▁Info	-11.1534
▁lumières	-11.1538
▁instruments	-11.1541
▁fluide	-11.1541
▁boucle	-11.1541
▁paru	-11.1542
▁app	-11.1545
▁Para	-11.1547
amitié	-11.1547
▁enregistre	-11.1548
▁manifeste	-11.1548
▁voyager	-11.1548
PC	-11.1551
▁essentielle	-11.1551
▁mensuel	-11.1552
mique	-11.1553
▁mariée	-11.1554
▁Manuel	-11.1554
▁fiction	-11.1558
Car	-11.1558
vue	-11.1559
▁stabilité	-11.156
▁températures	-11.1562
▁défaite	-11.1564
▁Dame	-11.1565
own	-11.1567
▁suspension	-11.1568
▁Instagram	-11.157
▁Michael	-11.157
▁PO	-11.1573
▁origine	-11.1574
▁apprentissage	-11.1574
rus	-11.1575
▁Frais	-11.1576
mand	-11.1576
▁croisière	-11.1576
vr	-11.1578
▁accompli	-11.1579
▁positions	-11.158
▁lancée	-11.158
▁conseillons	-11.158
▁Pratique	-11.1584
ménage	-11.1585
▁conclusion	-11.1586
▁spirituelle	-11.1586
▁ajoutée	-11.1587
▁informatiques	-11.1588
voqu	-11.159
▁mature	-11.1592
▁désigne	-11.1592
▁ac	-11.1596
▁marchand	-11.1598
▁essai	-11.16
▁Hommes	-11.1602
▁remboursé	-11.1604
win	-11.1605
▁stratégies	-11.1605
Marie	-11.1609
ître	-11.161
▁matériels	-11.1611
▁empêche	-11.1611
▁convaincre	-11.1611
EST	-11.1612
▁préférence	-11.1613
▁plaire	-11.1613
olive	-11.1618
Luc	-11.1618
photo	-11.1621
nou	-11.1622
▁administrateurs	-11.1624
▁virtuel	-11.1624
ding	-11.1625
▁SI	-11.1625
isson	-11.1627
▁marquée	-11.1628
▁filet	-11.163
▁(+	-11.163
▁adoré	-11.1631
▁Action	-11.1633
day	-11.1633
exactitude	-11.1634
▁servent	-11.1634
▁Roche	-11.1638
▁offrons	-11.1639
▁linge	-11.1639
▁souhaité	-11.1639
Académie	-11.164
▁appliquée	-11.1642
▁députés	-11.1642
bec	-11.1643
▁Soyez	-11.1645
▁milieux	-11.1645
fait	-11.1645
▁issue	-11.1646
▁Mercredi	-11.1647
▁visibilité	-11.1648
▁Congrès	-11.1649
nos	-11.1652
▁légitime	-11.1653
bul	-11.1654
▁fausse	-11.1657
▁AG	-11.1661
▁initiale	-11.1661
ades	-11.1662
▁déf	-11.1665
▁Méditerranée	-11.1666
émotion	-11.1667
isto	-11.1668
organiser	-11.1669
▁amitié	-11.1671
pes	-11.1671
▁cheminée	-11.1674
DR	-11.1676
▁pratiquer	-11.1677
▁Romain	-11.1677
▁révision	-11.1677
épreuve	-11.1681
humidité	-11.1681
vou	-11.1682
▁Gen	-11.1682
ram	-11.1683
▁espèce	-11.1683
▁Guinée	-11.1683
MENT	-11.169
oïd	-11.169
▁best	-11.1697
▁immédiate	-11.1698
▁vapeur	-11.1699
▁ki	-11.1705
▁significative	-11.1706
▁descend	-11.1709
▁surpris	-11.1709
▁arrondissement	-11.1711
ESS	-11.1712
▁congé	-11.1712
▁jazz	-11.1713
nk	-11.1714
épisode	-11.1716
neur	-11.1716
▁tonnes	-11.1716
▁interprétation	-11.1717
▁diamètre	-11.1718
▁tuto	-11.1718
expertise	-11.1718
▁texture	-11.1722
▁racines	-11.1722
ode	-11.1725
▁lol	-11.1727
▁aidé	-11.1728
▁indicatif	-11.1729
ern	-11.1733
▁rêver	-11.1736
▁abord	-11.1737
▁adresser	-11.1738
iqu	-11.174
▁mix	-11.1741
▁avancer	-11.1743
▁locations	-11.1748
len	-11.1748
▁sols	-11.1749
rité	-11.175
▁dedans	-11.1752
▁vache	-11.1754
tens	-11.1755
▁Appartement	-11.1755
▁docteur	-11.1757
▁Bay	-11.1757
▁issu	-11.1757
iter	-11.1758
▁Cré	-11.1758
▁fiscale	-11.1763
▁intéressante	-11.1767
pul	-11.1768
▁contenir	-11.1768
Me	-11.1769
▁fédéral	-11.177
FF	-11.177
▁scènes	-11.1771
lois	-11.1772
▁diffusé	-11.1773
▁écrans	-11.1773
▁professionnalis	-11.1773
▁associée	-11.1775
3%	-11.1775
▁mit	-11.1775
avère	-11.1775
logique	-11.1775
▁rendent	-11.1776
posé	-11.1776
▁Concernant	-11.1777
cker	-11.1778
▁similaire	-11.178
Voir	-11.1784
▁inoubliable	-11.1784
▁estimation	-11.1788
▁payé	-11.179
tude	-11.179
inverse	-11.179
▁distingue	-11.1791
▁Net	-11.1795
▁at	-11.1797
▁intéresse	-11.1802
▁épisodes	-11.1803
▁vif	-11.1804
ENS	-11.1807
▁Science	-11.1808
▁Connectez	-11.1809
▁conservé	-11.181
vage	-11.1811
▁emp	-11.1811
▁Hol	-11.1812
père	-11.1816
ancé	-11.1816
mu	-11.1818
appui	-11.1818
▁EUR	-11.1819
▁pli	-11.1819
▁99	-11.182
▁exception	-11.1821
▁culturels	-11.1821
▁états	-11.1824
▁GR	-11.1825
▁transformé	-11.1826
▁valider	-11.1828
reux	-11.1828
▁chrétiens	-11.1829
▁verts	-11.1829
ito	-11.183
▁CV	-11.1832
iche	-11.1832
▁Streaming	-11.1832
▁représenté	-11.1834
▁artisan	-11.1836
▁promenade	-11.1837
instruction	-11.1838
▁mauvaises	-11.1839
▁CN	-11.1839
SM	-11.184
▁prendra	-11.184
▁fixer	-11.1841
▁figurant	-11.1846
▁appeler	-11.1846
▁Gre	-11.1847
▁ennemis	-11.1848
▁religieuse	-11.1848
▁portent	-11.1851
▁paramétrer	-11.1853
▁reine	-11.1853
▁oct	-11.1855
▁Actu	-11.1856
▁postés	-11.1857
▁témoins	-11.186
tec	-11.1861
▁Eh	-11.1861
-12	-11.1862
▁probable	-11.1863
graphe	-11.1864
rience	-11.1865
▁Lit	-11.1865
▁technologique	-11.1865
8)	-11.1866
▁all	-11.1868
▁secrète	-11.1869
érie	-11.1871
▁Exposition	-11.1873
▁conflits	-11.1874
▁Bour	-11.1874
▁free	-11.1876
▁Dia	-11.188
ût	-11.188
▁Exemple	-11.1881
▁choisie	-11.1883
asser	-11.1885
quant	-11.1886
aurai	-11.1887
▁financer	-11.1887
▁philosophe	-11.1888
▁doucement	-11.1888
▁mixte	-11.1889
▁700	-11.1895
affi	-11.1896
▁réfléchi	-11.1896
▁accusé	-11.19
▁Jou	-11.19
▁symbolique	-11.1901
oth	-11.1902
▁AD	-11.1902
▁impliqué	-11.1902
▁servant	-11.1902
▁sonore	-11.1904
▁FAQ	-11.1906
▁Néanmoins	-11.1907
ago	-11.1907
anc	-11.1909
▁logistique	-11.191
▁abonnés	-11.1911
▁Coll	-11.1911
▁protégé	-11.1911
rien	-11.1912
-6	-11.1913
▁Sélectionnez	-11.1914
▁égal	-11.1914
▁monté	-11.1915
▁intéressé	-11.1915
▁Cuir	-11.1915
▁Commune	-11.1916
▁TF	-11.1916
▁évoqué	-11.1916
▁jaunes	-11.1918
▁bracelet	-11.1921
▁perception	-11.1921
trop	-11.1922
▁gar	-11.1923
AV	-11.1923
rieur	-11.1923
occuper	-11.1925
▁horaire	-11.1926
▁noirs	-11.193
▁exploitation	-11.1931
▁restera	-11.1932
▁1994	-11.1933
▁160	-11.1933
▁saurait	-11.1934
▁copine	-11.1935
▁her	-11.1935
▁Temps	-11.1936
▁fermer	-11.1938
▁Lac	-11.194
▁Video	-11.1941
phe	-11.1945
LO	-11.1945
▁appliqué	-11.1945
▁sal	-11.1947
OI	-11.1947
▁fabricants	-11.1948
éti	-11.1948
rop	-11.195
▁ouverts	-11.1952
▁boissons	-11.1954
▁spa	-11.1955
ART	-11.1956
▁baise	-11.1956
gel	-11.1958
▁tre	-11.1958
aw	-11.1959
▁École	-11.1961
▁Générale	-11.1961
▁Fan	-11.1962
▁interventions	-11.1963
▁Nouveaux	-11.1964
▁champion	-11.1967
▁placement	-11.1972
sible	-11.1972
▁ciné	-11.1973
▁transaction	-11.1974
phy	-11.1975
rance	-11.1976
Mar	-11.1976
▁bulle	-11.1977
▁honte	-11.1977
œ	-11.198
▁noble	-11.1984
▁prochains	-11.1987
▁appliquer	-11.1988
▁Suivez	-11.1988
▁Normandie	-11.1992
▁explications	-11.1996
▁seuil	-11.1996
▁enseignant	-11.1996
islam	-11.2
optimisation	-11.2002
▁sélectionnés	-11.2002
IO	-11.2007
▁indépendants	-11.2008
▁fraude	-11.201
iver	-11.2012
▁Fu	-11.2012
▁usine	-11.2012
▁comédie	-11.2013
▁chrétienne	-11.2014
▁représentations	-11.2016
▁portefeuille	-11.2018
▁Roman	-11.2024
▁file	-11.2024
gro	-11.2024
▁Défense	-11.2025
crire	-11.2026
▁Parfois	-11.2027
▁Anglais	-11.2028
▁possession	-11.2028
▁résulte	-11.2031
")	-11.2033
star	-11.2034
Vi	-11.2035
▁sauvegarde	-11.2039
mond	-11.2042
▁dépendance	-11.2043
avocat	-11.2044
▁che	-11.2044
▁filiale	-11.2046
▁phare	-11.205
▁exigeant	-11.2053
▁dég	-11.2054
▁Victor	-11.2059
▁volontaire	-11.206
acc	-11.2063
gée	-11.2064
Dans	-11.2065
struc	-11.2065
▁XIXe	-11.2066
▁caché	-11.2067
▁CP	-11.2069
▁CAP	-11.207
gri	-11.2073
ffe	-11.2074
mée	-11.2075
▁remarquer	-11.2076
▁maquillage	-11.2078
▁consulté	-11.2079
arme	-11.2079
▁end	-11.2082
▁réjoui	-11.2083
uant	-11.2086
▁interface	-11.2089
▁citation	-11.2091
▁attendent	-11.2091
▁vols	-11.2092
▁répondant	-11.2093
▁provoque	-11.2098
▁déterminé	-11.2099
▁Justice	-11.2102
▁théorique	-11.2102
▁apparaissent	-11.2105
usse	-11.2105
▁Nuit	-11.2106
▁gré	-11.2106
▁abordable	-11.2107
▁(8	-11.2108
Louis	-11.2108
oche	-11.211
▁cro	-11.2113
rial	-11.2116
▁attente	-11.2116
Man	-11.2119
▁chère	-11.212
▁concerné	-11.212
▁communiste	-11.2122
2010	-11.2123
▁invisible	-11.2124
▁oreilles	-11.2124
▁voté	-11.2125
▁informe	-11.2126
▁cherchent	-11.2127
▁donnez	-11.2128
lia	-11.2128
▁insolite	-11.213
▁respecte	-11.2131
▁Certes	-11.2137
Cha	-11.2137
tou	-11.2142
▁sexuel	-11.2144
rab	-11.2144
▁;)	-11.2146
▁contribue	-11.2146
▁compl	-11.2148
▁tournant	-11.215
▁rayons	-11.215
▁jean	-11.2152
agé	-11.2152
mir	-11.2155
▁remplacé	-11.2156
▁FN	-11.2159
▁immeuble	-11.2162
empêcher	-11.2162
“	-11.2162
▁techniciens	-11.2162
▁pri	-11.2163
▁gestes	-11.2164
▁colonne	-11.2166
hors	-11.2168
Notre	-11.217
▁Mobile	-11.2172
▁bisous	-11.2172
▁57	-11.2173
▁Pologne	-11.2173
▁courir	-11.2173
▁Marketing	-11.2176
cen	-11.2177
▁épreuve	-11.2178
▁gou	-11.218
▁Images	-11.2181
▁qualification	-11.2181
QUE	-11.2182
▁Spécial	-11.2183
▁business	-11.2184
/01/	-11.2184
▁digitale	-11.2185
tta	-11.2185
▁rédigé	-11.219
▁Mas	-11.219
▁électro	-11.2191
)|	-11.2194
▁tort	-11.2194
▁Peinture	-11.2196
▁Monaco	-11.2197
▁gîte	-11.2197
▁voulons	-11.2197
▁posté	-11.2197
▁Kar	-11.2198
▁délégation	-11.2199
▁communautaire	-11.2201
▁différences	-11.2201
▁patience	-11.2202
▁aluminium	-11.2202
▁effort	-11.2202
▁----	-11.2206
▁destinataire	-11.2206
ool	-11.2207
▁you	-11.2207
▁investissements	-11.2207
post	-11.2209
▁transporteur	-11.2211
arque	-11.2213
ssons	-11.2214
▁suspendu	-11.2215
time	-11.2218
resser	-11.2218
▁Mad	-11.2219
disciplinaire	-11.2221
▁écrivain	-11.2221
▁Série	-11.2223
▁finance	-11.2225
▁manipulation	-11.2228
▁Win	-11.2228
▁faiblesse	-11.2228
▁Gui	-11.2229
ula	-11.2229
▁voisin	-11.223
entraînement	-11.223
▁concasseur	-11.223
▁particulières	-11.2232
▁plaques	-11.2232
bro	-11.2233
-8	-11.2233
▁rive	-11.2237
▁remonter	-11.2238
▁ho	-11.2239
▁gla	-11.224
rio	-11.2242
▁refusé	-11.2242
rum	-11.2243
rich	-11.2244
php	-11.2244
▁crainte	-11.2244
▁detail	-11.2245
▁catastrophe	-11.2245
ôt	-11.2245
thèque	-11.2247
▁menée	-11.2247
dant	-11.2248
▁parlent	-11.225
observation	-11.2252
▁tranche	-11.2252
▁vingtaine	-11.2255
▁maîtriser	-11.2255
zz	-11.2257
▁Sarkozy	-11.2262
▁éloigné	-11.2264
▁parcourir	-11.2265
point	-11.2267
AIRE	-11.2268
entrer	-11.2272
▁1992	-11.2272
▁Bravo	-11.2274
▁priori	-11.2279
▁engage	-11.228
▁Vu	-11.2281
Tout	-11.2285
Pas	-11.2285
▁généré	-11.2289
mine	-11.229
▁énergies	-11.2291
ato	-11.2295
▁blonde	-11.2295
AU	-11.2296
oll	-11.2296
▁manche	-11.2297
igné	-11.2298
NO	-11.2301
Esprit	-11.2303
▁King	-11.2304
ika	-11.2304
▁enregistrement	-11.2304
afficher	-11.2305
▁pomme	-11.2305
▁identifiant	-11.2306
Michel	-11.2308
▁personnalisées	-11.2308
▁effectuée	-11.231
▁vas	-11.2314
▁Barcelone	-11.2315
▁stages	-11.2317
▁spectaculaire	-11.2317
▁Sujet	-11.2323
urant	-11.2328
▁Gl	-11.2329
▁agréé	-11.233
ONU	-11.2332
ics	-11.2333
admir	-11.2333
▁Management	-11.2334
▁profondément	-11.2334
dr	-11.2336
ues	-11.2336
/12/	-11.2338
▁Texte	-11.2339
AIS	-11.234
▁manches	-11.234
▁responsabilités	-11.234
chage	-11.2343
commerce	-11.2344
▁2.0	-11.2347
▁universelle	-11.2348
▁parent	-11.2348
▁balades	-11.235
▁Saisissez	-11.2351
apporter	-11.2351
/24	-11.2353
▁Donald	-11.2353
adapte	-11.2354
▁symboliques	-11.236
▁Sexe	-11.2362
▁mythique	-11.2364
▁évènement	-11.2365
france	-11.2365
atifs	-11.2367
▁fortune	-11.237
gué	-11.237
▁graves	-11.2371
Br	-11.2373
▁exprimer	-11.2374
cel	-11.2375
The	-11.2375
▁Entretien	-11.2376
▁transmet	-11.2376
▁Cou	-11.2378
assé	-11.2379
▁Ordre	-11.2381
intermédiaire	-11.2381
▁POUR	-11.2383
lac	-11.2384
▁chimiques	-11.2385
▁attaché	-11.2385
▁BR	-11.2389
/10	-11.239
▁Gal	-11.2396
▁décennies	-11.2396
▁Albert	-11.2398
▁canon	-11.24
▁provoquer	-11.2401
▁malades	-11.2404
quel	-11.2405
▁Chant	-11.2405
shop	-11.2407
tais	-11.2408
occupe	-11.2409
▁Suède	-11.241
▁adjoint	-11.241
rand	-11.2414
▁vive	-11.2414
▁PE	-11.2417
▁canadienne	-11.2419
oxy	-11.2419
▁tiendra	-11.242
▁retenu	-11.2421
▁google	-11.2422
▁dégustation	-11.2424
▁séjours	-11.2425
▁échec	-11.2426
▁coloris	-11.2426
iant	-11.2426
▁étrangère	-11.2428
▁Mot	-11.2428
rel	-11.2432
éc	-11.2432
ssy	-11.2433
▁Pl	-11.2434
▁Yo	-11.2434
▁départements	-11.2435
▁désactiver	-11.2436
▁inspiration	-11.2441
cycl	-11.2444
▁Mus	-11.2446
▁fibre	-11.2447
▁Eli	-11.2448
▁aménagement	-11.2449
▁Quels	-11.2451
quette	-11.2452
▁Cri	-11.2453
entendre	-11.2461
▁expression	-11.2462
▁baiser	-11.2463
ual	-11.2465
activation	-11.2466
▁Ensemble	-11.2469
▁répondent	-11.2471
▁environs	-11.2471
▁directeurs	-11.2472
▁dirigeant	-11.2473
▁anglaise	-11.2474
uré	-11.2475
ike	-11.2476
▁Dj	-11.2476
▁intervient	-11.2477
▁astrologiques	-11.2477
▁Accès	-11.2479
▁rideaux	-11.2479
Informatique	-11.2479
▁réactions	-11.248
▁raf	-11.2481
▁progresser	-11.2484
écu	-11.2484
▁électorale	-11.2489
▁envoyée	-11.2489
▁AR	-11.2492
dine	-11.2495
▁attaques	-11.2496
▁Thèmes	-11.2496
Tech	-11.2497
▁guider	-11.2498
▁autorisée	-11.2499
issé	-11.2502
▁voient	-11.2503
▁efficacement	-11.2504
▁monument	-11.2504
▁AL	-11.2505
▁Network	-11.2506
▁juridiques	-11.2507
▁originaire	-11.2508
▁retourne	-11.2509
▁directrice	-11.2509
coration	-11.251
aka	-11.251
▁Sun	-11.2511
autonomie	-11.2512
▁Jazz	-11.2513
▁réunions	-11.2514
▁bénéfice	-11.2514
▁avion	-11.2516
▁veste	-11.2517
▁Id	-11.2521
▁Pyrénées	-11.2522
▁up	-11.2523
ingue	-11.2525
▁plongée	-11.2528
▁pantalon	-11.2528
▁emprunt	-11.2532
tribu	-11.2532
PO	-11.2533
nge	-11.2534
▁Idéal	-11.2534
▁Blue	-11.2535
▁islamique	-11.2537
▁puce	-11.2538
▁Ros	-11.2538
▁Achat	-11.2538
Israël	-11.2539
▁Message	-11.254
▁allée	-11.254
cation	-11.254
▁parcs	-11.254
▁Laissez	-11.2544
▁compétent	-11.2544
▁pouvais	-11.255
▁habituellement	-11.2551
ipp	-11.2556
▁lampe	-11.2558
EX	-11.2559
hol	-11.2561
▁nécessairement	-11.2562
grand	-11.2564
▁particularité	-11.2565
▁Ball	-11.2567
Photo	-11.2569
▁longs	-11.2571
▁carbone	-11.2571
▁ferait	-11.2573
▁séparation	-11.2573
2009	-11.2574
▁lourde	-11.2575
lez	-11.2575
▁recueil	-11.2575
▁suppose	-11.2578
éné	-11.258
▁At	-11.258
Euro	-11.2582
▁sévère	-11.2582
▁proc	-11.2586
osse	-11.2586
▁SMS	-11.2587
acceptation	-11.2592
▁pédagogiques	-11.2593
▁décrire	-11.2594
▁Café	-11.2595
▁Cameroun	-11.2595
iane	-11.2595
Des	-11.2597
▁Force	-11.2604
▁vaccin	-11.2604
GO	-11.2605
▁gén	-11.2606
/11	-11.2606
▁Micro	-11.2606
Pa	-11.2607
▁possèdent	-11.2608
cieuse	-11.261
dés	-11.2613
graph	-11.2619
▁Entreprise	-11.2623
▁méchant	-11.2624
▁respectifs	-11.2624
▁Marché	-11.2625
▁créateurs	-11.2625
▁récentes	-11.2629
▁Sacs	-11.2633
▁fixation	-11.2634
▁graines	-11.2634
clés	-11.2639
rateur	-11.2642
▁seules	-11.2642
▁(17	-11.2644
▁développée	-11.2644
éclairage	-11.2645
▁technologiques	-11.2645
och	-11.2645
ii	-11.2645
▁Bor	-11.2646
▁Machine	-11.2646
▁touristes	-11.2647
ouf	-11.2647
▁FRANCE	-11.2648
▁Porno	-11.2648
▁visitez	-11.2653
▁affiché	-11.2653
▁Fou	-11.2655
▁sup	-11.2657
cieux	-11.2658
▁Cherche	-11.2658
▁déposé	-11.2662
▁Telecharger	-11.2662
▁précieuse	-11.2664
▁papiers	-11.2667
▁Pal	-11.2668
immigration	-11.2668
▁artistiques	-11.2668
map	-11.2671
▁(15	-11.2671
Air	-11.2671
▁installée	-11.2672
▁retrouvent	-11.2675
▁Los	-11.2679
▁pourriez	-11.2679
▁avancé	-11.2679
▁Mardi	-11.268
▁coquine	-11.2682
▁form	-11.2683
▁parquet	-11.2684
▁off	-11.2686
▁bâti	-11.2687
▁salade	-11.2688
▁Sar	-11.2689
awa	-11.2689
▁maîtres	-11.269
ë	-11.2692
▁célèbres	-11.2693
▁AU	-11.2694
▁douleurs	-11.2695
mod	-11.2696
▁aides	-11.2699
duire	-11.27
▁individu	-11.2701
emballage	-11.2702
▁AM	-11.2702
▁challenge	-11.2703
▁Garantie	-11.2703
apparition	-11.2705
▁Numéro	-11.2705
▁tomb	-11.2705
▁enseignement	-11.2706
▁Washington	-11.2708
▁gâteau	-11.271
établir	-11.2713
▁analyser	-11.2714
▁négative	-11.2715
▁violences	-11.2715
hum	-11.2716
▁occidentale	-11.2717
▁initiative	-11.272
rir	-11.2722
anniversaire	-11.2722
▁Sophie	-11.2723
▁maillot	-11.2725
élu	-11.2725
▁personnalités	-11.2726
▁voila	-11.2728
:::::	-11.2729
▁fréquent	-11.273
▁effectue	-11.273
▁détour	-11.2733
▁pratiquement	-11.2734
tas	-11.2734
▁demandent	-11.2735
ép	-11.2735
isolation	-11.2738
▁listes	-11.2739
▁envahi	-11.274
▁rigueur	-11.2741
agissait	-11.2744
▁État	-11.2744
▁styles	-11.2745
▁Caractère	-11.2746
▁chemins	-11.2746
▁tactile	-11.2748
▁Bob	-11.2749
▁écrits	-11.2751
▁cat	-11.2752
▁variable	-11.2752
heim	-11.2753
▁PAR	-11.2754
ivité	-11.2757
▁circulaire	-11.2758
▁multimédia	-11.2758
▁Tim	-11.2758
▁jugé	-11.2759
invité	-11.276
▁japonaise	-11.2761
▁blanches	-11.2761
iaire	-11.2762
TT	-11.2762
cin	-11.2763
▁basket	-11.2764
▁Marcel	-11.2766
ére	-11.2766
animaux	-11.2768
▁abri	-11.277
▁mettons	-11.2774
▁commencent	-11.2774
▁paradis	-11.2775
▁Clo	-11.2777
suiv	-11.2777
▁Esp	-11.278
clé	-11.2781
NC	-11.2781
oni	-11.2782
▁muni	-11.2784
▁régionales	-11.2785
aye	-11.2788
▁CM	-11.2788
▁marié	-11.2792
▁appartements	-11.2797
/11/2018	-11.2797
▁Lib	-11.2797
odo	-11.2797
▁accordé	-11.28
▁Cité	-11.28
▁illustre	-11.28
▁envoie	-11.2801
▁Côté	-11.2801
appuie	-11.2804
▁rituel	-11.2804
oï	-11.2807
ava	-11.2808
·	-11.2809
▁lectures	-11.2809
▁couvrir	-11.2812
▁uniques	-11.2814
▁Vir	-11.2814
▁affecté	-11.2815
▁Créer	-11.2816
▁~	-11.2817
sia	-11.2818
accident	-11.2819
▁adopter	-11.2819
toire	-11.2821
étudiant	-11.2821
▁définitive	-11.2822
▁revêtement	-11.2822
▁saisi	-11.2824
wan	-11.2824
▁anime	-11.2829
▁stations	-11.2832
▁script	-11.2834
lire	-11.2836
▁67	-11.2836
▁réf	-11.2839
▁tailles	-11.284
èche	-11.284
▁créant	-11.2841
cap	-11.2841
petit	-11.2849
primé	-11.285
▁seniors	-11.2851
▁pote	-11.2852
▁supplément	-11.2854
▁Vietnam	-11.2855
▁Ban	-11.2855
▁robot	-11.2856
▁toiture	-11.2856
MB	-11.2857
▁poursuivi	-11.2858
▁modéré	-11.2861
▁provisoire	-11.2863
▁impôts	-11.2865
▁Constitution	-11.2866
▁chaînes	-11.2866
▁jouent	-11.2866
▁pensent	-11.2867
▁bandoulière	-11.2868
▁Fl	-11.2868
▁trouble	-11.2869
▁partagée	-11.2869
gique	-11.287
▁bénéficient	-11.287
lles	-11.2871
mag	-11.2871
▁blessé	-11.2872
▁buts	-11.2872
▁plancher	-11.2873
▁passées	-11.2873
▁94	-11.2874
▁parlant	-11.2875
droit	-11.2875
▁dangereuse	-11.2876
▁Année	-11.288
ignant	-11.2882
▁Membre	-11.2882
▁scandale	-11.2883
UC	-11.2884
▁capables	-11.2887
▁monuments	-11.2888
▁CL	-11.2888
▁opérateurs	-11.2888
▁ménages	-11.2889
▁Installation	-11.2891
▁Libertés	-11.2891
▁artificielle	-11.2893
gard	-11.2895
▁marin	-11.2895
/1	-11.2895
▁rejet	-11.2896
▁1970	-11.2896
▁moulin	-11.2896
érez	-11.2897
▁Catherine	-11.2898
▁appr	-11.2899
▁amicale	-11.2901
▁Sens	-11.2901
▁concentré	-11.2901
▁entrepreneurs	-11.2902
ELLE	-11.2904
▁libération	-11.2904
BE	-11.2906
ello	-11.2907
engager	-11.2907
▁max	-11.2908
▁génétique	-11.2909
▁Inscription	-11.2909
gui	-11.2913
▁solo	-11.2913
▁assemblée	-11.2913
▁entraîner	-11.2914
▁mystère	-11.2914
▁Australie	-11.2915
tho	-11.2917
▁tribu	-11.292
numér	-11.2921
▁affirmé	-11.2922
▁dentaire	-11.2926
▁TR	-11.2931
▁courts	-11.2936
▁spirituel	-11.2937
▁autorité	-11.2938
rd	-11.2938
long	-11.2942
^	-11.2942
▁Déjà	-11.2942
▁campagnes	-11.2943
▁grec	-11.2946
ense	-11.2946
aucun	-11.2947
galement	-11.2948
▁faille	-11.295
chée	-11.2953
▁fiabilité	-11.2954
PP	-11.2954
FI	-11.2954
ISS	-11.2955
issons	-11.296
▁ya	-11.2961
▁adolescents	-11.2964
▁thématique	-11.2964
ponse	-11.2966
rm	-11.2967
uma	-11.2968
affichent	-11.2969
zer	-11.2969
▁Beauté	-11.297
▁Docteur	-11.2976
▁rassemble	-11.2977
▁multitude	-11.2979
▁Arm	-11.2981
▁savais	-11.2981
▁%)	-11.2984
▁nation	-11.2984
▁essentiels	-11.2988
▁commissaire	-11.2989
▁pc	-11.2993
▁tourné	-11.2993
▁exploit	-11.2994
arg	-11.2995
▁76	-11.2997
▁animée	-11.2997
▁bloqué	-11.3
Am	-11.3001
▁loyer	-11.3001
ampleur	-11.3004
▁Ol	-11.3008
▁compromis	-11.3012
▁Ligne	-11.3013
▁fameuse	-11.302
-11	-11.302
▁Simon	-11.3021
FA	-11.3021
▁latin	-11.3021
▁montrent	-11.3022
rsquo	-11.3025
▁distribué	-11.3027
▁Moto	-11.3028
▁surfaces	-11.3031
▁étonnant	-11.3032
▁bibliothèques	-11.3033
▁prostituée	-11.3033
▁architecture	-11.3033
roll	-11.3035
[/	-11.3036
▁senti	-11.3037
▁Collège	-11.3038
▁HTML	-11.3038
appar	-11.3038
abo	-11.3039
ligne	-11.304
▁suggestions	-11.3042
▁trouvait	-11.3042
▁ministres	-11.3042
▁Responsable	-11.3046
▁troupes	-11.3046
▁habitation	-11.3047
alli	-11.3048
cr	-11.3048
rière	-11.3049
▁policiers	-11.305
▁démo	-11.305
▁recrute	-11.305
▁régal	-11.3051
▁Vienne	-11.3051
▁bra	-11.3051
▁comptable	-11.3051
vette	-11.3057
▁dépasse	-11.3058
MS	-11.3058
▁considération	-11.3059
▁63	-11.3061
▁intègre	-11.3063
▁égard	-11.3066
sk	-11.3066
▁remonte	-11.3066
▁approuvé	-11.3067
▁typique	-11.3068
▁paisible	-11.3069
▁DJ	-11.307
▁adhérents	-11.307
échec	-11.307
▁dégage	-11.3071
▁pertes	-11.3072
▁retiré	-11.3075
vient	-11.3078
attendre	-11.308
▁Mort	-11.3083
interprétation	-11.3083
▁constate	-11.3086
▁René	-11.3089
rement	-11.3092
▁incapable	-11.3093
uch	-11.3094
Autres	-11.3096
ä	-11.3098
▁anonyme	-11.3101
▁modération	-11.3101
▁Petites	-11.3101
ASS	-11.3103
▁décline	-11.3106
▁Heureusement	-11.3111
▁pourcentage	-11.3111
▁adaptation	-11.3114
ico	-11.3114
vente	-11.3116
▁IT	-11.3121
▁introduit	-11.3122
▁terrestre	-11.3123
▁originales	-11.3123
??	-11.3123
▁éthique	-11.3128
▁Ge	-11.3129
fou	-11.3129
▁clan	-11.3129
▁classés	-11.3131
▁sincère	-11.3131
▁usages	-11.3133
▁Ker	-11.3133
▁huiles	-11.3133
EF	-11.3135
▁SUR	-11.3136
▁indiquant	-11.3137
▁1)	-11.3137
▁cabine	-11.3138
▁écart	-11.3138
▁incluant	-11.314
▁crime	-11.3143
▁dîner	-11.3144
▁Surtout	-11.3146
▁Lieu	-11.3148
▁balle	-11.3149
▁perles	-11.3151
▁Sy	-11.3152
▁Fau	-11.3153
▁hauts	-11.3153
▁réaliste	-11.3154
coll	-11.3157
▁forcé	-11.3157
▁franco	-11.3158
▁congrès	-11.3159
▁armée	-11.3159
▁130	-11.316
▁foncé	-11.3162
▁opposition	-11.3166
▁universel	-11.3166
▁gestionnaire	-11.3167
RP	-11.3167
At	-11.3169
active	-11.3169
gramme	-11.3169
▁ju	-11.3171
▁Grenoble	-11.3172
▁Assurance	-11.3172
apport	-11.3173
▁Faut	-11.3175
▁consommer	-11.3176
▁Soirée	-11.3177
▁orientale	-11.3182
LI	-11.3183
▁perfection	-11.3183
▁faciles	-11.3184
▁sécurisée	-11.3184
▁Information	-11.3184
▁Village	-11.3185
▁localisation	-11.3186
▁appelés	-11.3188
▁nettoyer	-11.319
Auto	-11.3191
impose	-11.3191
igi	-11.3191
▁Championnat	-11.3193
▁Analyse	-11.3193
▁originaux	-11.3193
erne	-11.3194
▁suffisant	-11.3194
▁numéros	-11.3195
garde	-11.3195
▁meurtre	-11.3196
▁indiquée	-11.3198
▁fabriquer	-11.3199
▁PSG	-11.32
▁traditions	-11.3201
▁mathématiques	-11.3203
bois	-11.3203
▁complexité	-11.3206
▁Madrid	-11.3206
▁initiatives	-11.3207
▁gentillesse	-11.3209
▁débarque	-11.3212
nale	-11.3213
▁traités	-11.3213
abi	-11.3214
▁miracle	-11.3214
▁nationalité	-11.3215
▁imaginer	-11.3217
▁sexualité	-11.3217
▁récupération	-11.3218
▁obtient	-11.3219
▁remporté	-11.3219
▁pers	-11.322
oirs	-11.3223
▁blocage	-11.3223
▁brun	-11.3223
▁contour	-11.3223
▁amusant	-11.3225
▁relié	-11.3226
▁Résidence	-11.3228
▁faim	-11.3229
▁cardiaque	-11.323
▁saine	-11.3234
ition	-11.3235
▁juger	-11.3235
▁Zone	-11.3237
▁prit	-11.3237
Ho	-11.3238
▁médaille	-11.3238
▁poussière	-11.3238
▁absent	-11.3239
▁poivre	-11.3242
▁couronne	-11.3242
ieu	-11.3243
▁Business	-11.3243
▁Seul	-11.3244
lons	-11.3244
▁pratiqué	-11.3247
▁libérer	-11.3248
ford	-11.3249
▁express	-11.3251
mple	-11.3253
▁offerte	-11.3255
▁subir	-11.3255
Droit	-11.3257
▁mensonge	-11.3257
▁lisse	-11.3257
▁Long	-11.3257
▁Révolution	-11.326
▁Arbres	-11.326
▁gen	-11.3262
▁(12	-11.3263
▁lente	-11.3263
firm	-11.3265
▁nourrir	-11.3265
trans	-11.3265
▁survie	-11.3266
▁Liban	-11.3268
▁AC	-11.3268
▁fermée	-11.3268
▁signalé	-11.3269
▁souffre	-11.3269
▁pneus	-11.3269
▁spéciaux	-11.327
▁Droits	-11.327
▁retenir	-11.3271
▁qualifié	-11.3272
▁polémique	-11.3275
▁respecté	-11.3275
tête	-11.3276
▁enregistrées	-11.3277
▁drame	-11.3277
▁lits	-11.3279
▁toilette	-11.3282
▁guère	-11.3283
▁assurée	-11.3283
▁avancée	-11.3288
▁opinion	-11.3289
▁Personne	-11.3291
▁SC	-11.3292
▁inédite	-11.3293
▁ME	-11.3295
essayer	-11.3295
source	-11.3298
DC	-11.3299
▁Store	-11.3299
▁Allez	-11.3303
liste	-11.3304
▁visibles	-11.3305
▁attiré	-11.3305
▁Bible	-11.3305
▁noté	-11.3306
▁albums	-11.3306
▁cocktail	-11.3307
▁variés	-11.3308
▁attribué	-11.3308
▁prétexte	-11.3308
outils	-11.3308
velopp	-11.331
▁textile	-11.331
▁assorti	-11.3312
▁descente	-11.3313
stat	-11.3313
▁relatifs	-11.3313
▁Technique	-11.3314
▁nettement	-11.332
▁capitaine	-11.3321
▁dieu	-11.3321
uri	-11.3327
install	-11.333
▁bloquer	-11.3331
arriver	-11.3332
ographique	-11.3332
▁usagers	-11.3333
▁compagnies	-11.3333
onglet	-11.3333
▁ciblé	-11.3334
▁George	-11.3336
tha	-11.3337
taient	-11.3337
/2	-11.3337
▁terr	-11.3337
▁faculté	-11.3339
sseur	-11.334
gou	-11.3341
▁inclut	-11.3341
▁diff	-11.3341
▁appartenant	-11.3342
▁Bourgogne	-11.3343
issage	-11.3344
▁migrants	-11.3344
cade	-11.335
cours	-11.335
▁délicieux	-11.335
▁tablettes	-11.3351
ld	-11.3355
▁Mariage	-11.3355
▁linguistique	-11.3356
▁Orange	-11.3356
▁Ku	-11.3357
▁Continuer	-11.3358
▁retenue	-11.3358
▁Nor	-11.336
▁résolu	-11.336
amuser	-11.3361
nit	-11.3361
▁gloire	-11.3361
▁Alexandre	-11.3364
▁Champ	-11.3366
▁réuni	-11.3367
▁recherché	-11.3368
aurez	-11.3369
▁Médi	-11.3369
▁dirigé	-11.3369
▁Astrotheme	-11.3372
▁compagnon	-11.3372
ENCE	-11.3374
▁phpBB	-11.3375
▁formé	-11.3375
▁piège	-11.3375
hen	-11.3376
imagine	-11.3377
▁chanteuse	-11.3377
▁Fre	-11.338
▁WC	-11.3381
▁matériau	-11.3385
▁diffusée	-11.3385
▁Kan	-11.3387
▁TTC	-11.3388
▁mn	-11.3389
▁larmes	-11.3389
rama	-11.339
▁déçu	-11.3391
▁It	-11.3392
▁Sites	-11.3392
▁généreux	-11.3393
quée	-11.3393
▁courante	-11.3394
flex	-11.3396
▁Déco	-11.3397
▁entré	-11.3398
▁Ir	-11.3398
▁balance	-11.34
mise	-11.3401
▁Convention	-11.3402
▁psychologie	-11.3404
▁Remarque	-11.3405
▁justifier	-11.3405
▁She	-11.3406
▁génial	-11.3406
assa	-11.3407
▁Magasin	-11.3407
▁contes	-11.3407
▁pilotes	-11.3407
▁crayon	-11.3408
sauf	-11.3408
altitude	-11.3409
▁dévoilé	-11.341
mettre	-11.341
aimer	-11.3411
▁cougar	-11.3412
▁Version	-11.3412
▁blogue	-11.3413
▁Européen	-11.3413
▁employé	-11.3414
▁litige	-11.3416
gg	-11.3417
▁accueillant	-11.3418
OIS	-11.342
▁effectuées	-11.3421
gorie	-11.3421
BO	-11.3422
éma	-11.3422
▁corriger	-11.3423
vre	-11.3428
thérapie	-11.3428
AFP	-11.343
▁50%	-11.3431
▁démission	-11.3433
évènement	-11.3434
▁serrurier	-11.3434
▁Sta	-11.3434
bur	-11.3434
igue	-11.3435
▁arc	-11.3435
▁refuge	-11.3435
ibli	-11.3438
espèce	-11.3439
▁home	-11.3439
▁perspectives	-11.3443
▁plastiques	-11.3444
AA	-11.3444
▁Ky	-11.3445
°3	-11.3446
▁éducatif	-11.3448
▁viv	-11.345
▁ge	-11.3451
▁réunis	-11.3452
▁combats	-11.3455
media	-11.3455
▁construite	-11.3457
écologie	-11.3457
▁ğŸTM	-11.3457
▁Harry	-11.3459
▁régie	-11.346
▁88	-11.346
▁Alex	-11.3461
IB	-11.3465
▁Défenseur	-11.3465
▁coupable	-11.3468
▁Photographie	-11.347
▁habit	-11.347
▁fidèles	-11.347
▁internes	-11.347
▁Hors	-11.3471
и	-11.3472
▁ka	-11.3472
▁terminée	-11.3473
▁masculin	-11.3475
▁intellectuel	-11.3476
lection	-11.3477
▁mus	-11.3478
▁HT	-11.348
▁Gilles	-11.3482
▁passagers	-11.3482
▁Île	-11.3483
▁pouvaient	-11.3483
▁Fille	-11.3484
▁glisse	-11.3488
obtention	-11.3488
▁quinze	-11.3488
▁municipalité	-11.3489
▁Peter	-11.3489
chez	-11.3493
▁digital	-11.3494
▁synonyme	-11.3494
▁foie	-11.3495
liers	-11.35
▁Pôle	-11.3501
motion	-11.3503
pie	-11.3504
▁poulet	-11.3505
▁Wall	-11.3506
Lo	-11.3507
▁visuel	-11.3508
▁Introduction	-11.3509
riel	-11.3511
▁assistance	-11.3512
▁couches	-11.3514
ssait	-11.3514
▁Bill	-11.3516
▁élevés	-11.3517
▁fran	-11.3518
▁Creative	-11.3519
▁financé	-11.3519
▁teint	-11.3523
▁médiatique	-11.3525
ifiée	-11.3525
▁écriture	-11.3526
▁Fête	-11.3528
▁84	-11.3528
▁GPS	-11.3528
▁jâ	-11.3529
▁cousin	-11.3532
▁chalet	-11.3534
▁aérien	-11.3536
▁Florence	-11.3538
▁étroite	-11.3538
tente	-11.3539
▁révélation	-11.3543
▁romans	-11.3544
board	-11.3545
EZ	-11.3546
▁(9	-11.3546
▁Power	-11.3546
▁affichés	-11.3547
DD	-11.355
Mi	-11.3552
essence	-11.3555
▁Résultats	-11.3555
▁régulier	-11.3556
▁marchandises	-11.3558
ific	-11.3559
eve	-11.356
▁poétique	-11.3563
naient	-11.3565
▁Mairie	-11.357
▁médicaux	-11.3573
▁bombe	-11.3576
▁navire	-11.3578
▁vivante	-11.358
oma	-11.358
▁Camp	-11.358
chauff	-11.3582
▁évaluer	-11.3585
▁vernis	-11.3585
▁it	-11.3589
aël	-11.359
▁tiennent	-11.3591
▁abonner	-11.3591
iqué	-11.3594
▁observer	-11.3594
lec	-11.3594
▁fonctionnent	-11.3595
▁Green	-11.3596
▁courbe	-11.3597
▁OS	-11.3598
▁Sébastien	-11.3599
sses	-11.36
▁poule	-11.3601
▁plombier	-11.3601
▁gorge	-11.3603
▁bateaux	-11.3604
▁designer	-11.3606
▁opinions	-11.3607
▁augmenté	-11.3608
▁câ	-11.3611
▁renseignement	-11.3612
▁militants	-11.3613
▁encourage	-11.3613
▁viendra	-11.3614
▁combattre	-11.3616
lumin	-11.3616
0%	-11.3616
▁fournie	-11.3618
▁esprits	-11.362
▁concevoir	-11.362
▁Mark	-11.3621
▁pensais	-11.3623
▁diabète	-11.3623
▁crochet	-11.3624
▁Mondial	-11.3625
CS	-11.3625
▁fataliste	-11.3625
▁86	-11.3626
▁capture	-11.3627
▁▷	-11.3629
▁transmis	-11.3633
▁problématique	-11.3634
▁soumettre	-11.3634
▁Batterie	-11.3635
▁prouver	-11.3635
▁accent	-11.3636
▁pres	-11.3636
international	-11.364
▁géré	-11.364
▁faibles	-11.3641
itÃ	-11.3641
▁transmises	-11.3643
éna	-11.3646
▁centaine	-11.3649
arrange	-11.3649
aki	-11.3649
▁aient	-11.365
▁permissions	-11.3654
▁camion	-11.3655
▁bour	-11.3655
aut	-11.3656
▁chauffeur	-11.3658
▁!!!!	-11.3659
▁récents	-11.3659
▁issues	-11.3662
▁73	-11.3663
emment	-11.3666
rive	-11.3667
▁placard	-11.3667
▁ferm	-11.3668
▁(0)	-11.3669
xx	-11.3672
▁ruban	-11.3673
▁extraits	-11.3676
▁autonomie	-11.3677
▁goûter	-11.3679
encontre	-11.368
▁manager	-11.3681
face	-11.3681
▁Versailles	-11.3684
mber	-11.3688
▁Jeunesse	-11.3689
▁sexuelles	-11.3689
▁Dossier	-11.3689
▁fréquemment	-11.3689
explique	-11.369
▁soutient	-11.369
▁absolue	-11.3691
▁auxquelles	-11.3692
▁Atelier	-11.3694
▁réfugiés	-11.3695
▁choisis	-11.3696
▁universités	-11.3699
▁MI	-11.3704
▁extrême	-11.3704
iga	-11.3706
get	-11.3706
▁disques	-11.3706
vain	-11.3707
pel	-11.3708
▁Construction	-11.3709
▁Jan	-11.3709
▁Contrôle	-11.3709
▁Mission	-11.371
2008	-11.3715
Atelier	-11.3715
▁tombée	-11.3715
Paris	-11.3717
▁hautes	-11.3717
▁actuels	-11.3718
▁créatifs	-11.3719
▁sérénité	-11.372
▁démonstration	-11.3723
▁fondamentaux	-11.3723
▁hein	-11.3723
▁escalier	-11.3726
▁apparition	-11.3726
▁fût	-11.3727
▁Galaxy	-11.3728
pho	-11.373
exclusion	-11.3731
▁détruire	-11.3731
▁West	-11.3731
▁isolé	-11.3731
▁élection	-11.3732
▁Indi	-11.3732
▁Trop	-11.3733
▁culinaire	-11.3734
▁baie	-11.3734
▁_	-11.3738
▁(23)	-11.3738
▁constitutionnel	-11.3739
▁CS	-11.3739
▁divin	-11.3741
▁témoin	-11.3742
▁(16	-11.3744
ango	-11.3744
▁cuire	-11.3744
alys	-11.3744
▁abordé	-11.3748
merci	-11.3749
▁Out	-11.375
▁réalisations	-11.3751
▁paiements	-11.3751
astro	-11.3752
isez	-11.3753
éco	-11.3753
▁souhaitons	-11.3753
▁inédit	-11.3754
Com	-11.3754
▁plomb	-11.3754
▁secs	-11.3755
▁humanitaire	-11.3756
▁détruit	-11.3757
▁rembourser	-11.3758
▁budgétaire	-11.3759
lÃ	-11.3759
▁néo	-11.3761
▁61	-11.3762
vér	-11.3764
▁terrains	-11.3765
▁Fait	-11.3767
▁échantillon	-11.3768
▁hébergement	-11.3768
fl	-11.3769
IVE	-11.377
NET	-11.377
▁Venise	-11.3771
▁jolies	-11.3772
▁placée	-11.3772
▁vendus	-11.3774
andre	-11.3774
▁extérieurs	-11.3776
▁coco	-11.3778
/3	-11.378
▁inscrivant	-11.378
▁Av	-11.378
IX	-11.3782
▁tennis	-11.3784
▁carburant	-11.3785
▁Angleterre	-11.3785
▁intention	-11.3787
École	-11.3788
▁modules	-11.3791
encre	-11.3793
▁assisté	-11.3796
▁Support	-11.3797
bor	-11.3798
analyser	-11.3799
▁princesse	-11.38
▁séduire	-11.3801
pou	-11.3802
vir	-11.3804
▁hall	-11.3804
▁Lion	-11.3805
▁pros	-11.3807
Asie	-11.3808
▁détachées	-11.3808
▁feux	-11.381
▁noix	-11.3811
▁sélectionnez	-11.3812
▁extension	-11.3812
▁bouger	-11.3812
▁disposent	-11.3815
▁Montre	-11.3817
VA	-11.3817
labor	-11.3817
▁High	-11.3819
▁Cuba	-11.382
▁Mis	-11.3822
issait	-11.3823
▁preuves	-11.3823
▁établie	-11.3823
▁Quelles	-11.3824
▁Yves	-11.3825
çons	-11.3825
▁Rec	-11.3825
oct	-11.3826
▁poêle	-11.3826
▁Pensez	-11.3827
▁galeries	-11.3827
terre	-11.383
▁habituel	-11.3833
▁révéler	-11.3835
cast	-11.3836
▁investir	-11.3837
gir	-11.3838
▁UV	-11.3839
nements	-11.3841
▁collecter	-11.3842
▁animale	-11.3843
▁Heures	-11.3843
ifi	-11.3844
UB	-11.3844
▁rétablir	-11.3853
vic	-11.3855
▁110	-11.3857
▁prescription	-11.3857
▁Bourg	-11.3858
▁mépris	-11.3858
hib	-11.3865
▁Patrimoine	-11.3869
room	-11.3869
▁Pop	-11.3869
▁Voyages	-11.3869
▁1991	-11.3869
▁Cra	-11.3871
▁discrimination	-11.3872
▁provenance	-11.3872
▁900	-11.3872
▁sanitaires	-11.3873
▁Maire	-11.3874
▁occupe	-11.3876
▁infrastructures	-11.3878
▁vôtre	-11.388
CN	-11.3881
▁ados	-11.3882
▁fabrique	-11.3883
▁debout	-11.3889
▁contactant	-11.3889
▁habite	-11.389
Im	-11.3891
jan	-11.3891
UF	-11.3892
▁Commons	-11.3894
arm	-11.3894
▁caractérise	-11.3897
▁déterminée	-11.3897
collect	-11.3899
▁administratives	-11.3899
▁gère	-11.3899
▁Polar	-11.39
▁souviens	-11.3906
▁Niveau	-11.391
▁traditionnels	-11.3911
▁syndicats	-11.3913
dal	-11.3914
▁dispens	-11.3915
▁exemplaires	-11.3916
▁Conseils	-11.3917
utilis	-11.3919
François	-11.3927
[...]	-11.3927
▁détaillée	-11.3928
▁Lecteur	-11.3934
▁moule	-11.3935
▁1993	-11.3935
▁débute	-11.3935
▁paie	-11.3936
attends	-11.3936
▁coll	-11.3936
▁Magazine	-11.3937
▁Accord	-11.3938
▁Team	-11.3939
▁ann	-11.394
▁crimes	-11.3941
▁BTS	-11.3942
▁réveil	-11.3943
▁Maria	-11.3943
▁bravo	-11.3943
ova	-11.3943
▁imposé	-11.3943
▁Vis	-11.3947
▁Heure	-11.3947
▁affronter	-11.3949
lait	-11.3949
▁Restaurant	-11.3951
▁taxi	-11.3952
▁postal	-11.3955
▁recommander	-11.3956
▁seigneur	-11.3957
▁provient	-11.3958
▁concession	-11.3961
▁engager	-11.3962
▁terrorisme	-11.3963
7%	-11.3963
▁angulaire	-11.3965
▁chapelle	-11.3965
Angleterre	-11.3967
▁officiels	-11.3967
ciel	-11.3968
▁Jeune	-11.3969
▁externes	-11.3969
▁new	-11.3971
▁souhaiter	-11.3973
▁prétend	-11.3973
obby	-11.3976
artistes	-11.3977
ili	-11.3978
▁noires	-11.3979
▁déclarations	-11.3984
intégrer	-11.3984
chev	-11.3991
▁Nouvelles	-11.3991
▁Concert	-11.3992
▁matelas	-11.3992
▁saisie	-11.3992
médi	-11.3994
▁Kat	-11.3994
OUS	-11.3996
▁Via	-11.3999
rologie	-11.4003
▁Renault	-11.4003
▁fu	-11.4004
▁Image	-11.4005
▁gamin	-11.4006
phon	-11.4007
lève	-11.4009
risation	-11.401
FE	-11.401
▁Anna	-11.4011
▁emblématique	-11.4014
▁Psychologie	-11.4014
▁ger	-11.4017
▁constamment	-11.4017
▁grade	-11.4018
▁genres	-11.4021
▁attire	-11.4022
color	-11.4025
▁restos	-11.4027
kg	-11.4027
▁musées	-11.4033
▁tige	-11.4034
▁requis	-11.4035
abus	-11.4038
▁2)	-11.4039
RG	-11.404
▁démarrage	-11.4041
▁diminuer	-11.4043
▁CI	-11.4044
▁Classe	-11.4044
▁choisit	-11.4044
▁rassemblement	-11.4044
riste	-11.4045
▁Professeur	-11.4046
▁Ferr	-11.4047
▁FI	-11.4047
▁hypothèse	-11.4048
▁coffret	-11.4049
▁neutre	-11.4049
▁souligné	-11.4049
▁menaces	-11.4051
▁exercé	-11.4052
▁investisseurs	-11.4052
▁identique	-11.4053
▁serons	-11.4054
▁Fils	-11.4055
▁Outils	-11.4055
▁annuaire	-11.4055
▁guides	-11.4056
▁habitué	-11.4057
iki	-11.4062
▁Avertissement	-11.4063
▁Catégorie	-11.4069
▁cachée	-11.407
▁Day	-11.4071
épi	-11.4072
cule	-11.4072
▁Etude	-11.4072
oin	-11.4075
▁fonctionnaires	-11.4077
BL	-11.4078
▁Berges	-11.4079
▁abrite	-11.4082
1%	-11.4085
▁estimé	-11.4086
ouve	-11.4087
▁RO	-11.4087
▁satellite	-11.4089
▁dépassé	-11.4089
▁signer	-11.4092
accent	-11.4095
▁93	-11.4097
400	-11.4097
▁Digital	-11.4098
▁mâle	-11.4101
▁individuelles	-11.4102
▁perdue	-11.4102
▁interlocuteur	-11.4104
▁bouge	-11.4104
▁Ancien	-11.4105
▁hebdomadaire	-11.4106
▁Madagascar	-11.4106
▁imprimer	-11.4107
▁blogs	-11.4109
▁opportunités	-11.4112
contre	-11.4112
▁tabac	-11.4112
aptitude	-11.4112
▁calculé	-11.4113
▁facilite	-11.4113
▁flotte	-11.4113
<	-11.4113
▁promesse	-11.4115
Utilisation	-11.4115
▁laser	-11.4116
ILLE	-11.4117
éva	-11.4118
▁fabriqué	-11.4118
lettes	-11.412
▁nue	-11.4122
▁Part	-11.4122
▁litres	-11.4123
▁Stage	-11.4123
▁publi	-11.4125
omi	-11.4126
érable	-11.4127
enc	-11.4127
▁rendant	-11.413
▁humour	-11.413
▁SU	-11.4132
▁Love	-11.4132
▁érotique	-11.4133
▁gardé	-11.4133
▁éditeurs	-11.4134
ater	-11.4135
▁RP	-11.4136
bord	-11.4136
▁chirurgie	-11.4138
▁officier	-11.414
▁Partie	-11.414
▁provoqué	-11.4141
▁verrou	-11.4142
▁charbon	-11.4143
▁nocturne	-11.4144
▁actuelles	-11.4146
▁thérapie	-11.4146
▁Enfants	-11.4147
▁thérapeutique	-11.4147
▁situés	-11.4147
atteindre	-11.4147
isateur	-11.4148
▁Liens	-11.4149
▁Eu	-11.4149
issez	-11.415
▁incendie	-11.4151
▁Techniques	-11.4152
▁transactions	-11.4153
▁forêts	-11.4156
▁confidentiel	-11.4156
▁Shi	-11.4158
ours	-11.4158
▁acquérir	-11.4158
Jeux	-11.4159
▁suspect	-11.416
▁ml	-11.416
ival	-11.4163
▁trouvera	-11.4164
▁péché	-11.4164
▁plomberie	-11.4165
▁Cass	-11.4166
▁réunit	-11.4166
▁ir	-11.4168
▁espérons	-11.417
▁Reste	-11.4171
▁nulle	-11.4171
▁DS	-11.4175
ora	-11.4175
nation	-11.4175
▁dispo	-11.4175
▁francs	-11.4176
▁Blanche	-11.4176
2%	-11.4177
▁majeurs	-11.4178
▁tolérance	-11.4179
Inde	-11.4181
/05/	-11.4183
▁cho	-11.4184
▁démon	-11.4186
▁morte	-11.4188
étique	-11.4189
cut	-11.4189
▁montres	-11.4193
▁›	-11.4193
▁Médecine	-11.4194
▁Serge	-11.4196
▁CNIL	-11.4197
▁dérive	-11.4198
▁préavis	-11.4198
▁job	-11.42
▁reflet	-11.42
LM	-11.4201
▁Ang	-11.4201
▁Tro	-11.4202
unique	-11.4203
parti	-11.4204
poser	-11.4204
éme	-11.4205
▁Crédit	-11.4206
▁chou	-11.4206
IST	-11.4207
lisme	-11.4207
anime	-11.4207
▁barrière	-11.4209
▁confié	-11.4211
▁Pape	-11.4212
Su	-11.4213
▁from	-11.4214
▁recouvert	-11.4214
▁popularité	-11.4217
▁Organisation	-11.4218
lui	-11.4219
▁vainqueur	-11.422
▁effectués	-11.4221
▁essaie	-11.4222
▁peintures	-11.4222
▁cherchant	-11.4224
chat	-11.4224
▁BE	-11.4224
▁89	-11.4225
▁Ray	-11.4225
▁budgets	-11.4227
▁passez	-11.4227
lande	-11.4227
▁engagements	-11.4229
▁fac	-11.423
aya	-11.423
▁Offres	-11.423
▁regret	-11.4231
▁rappelé	-11.4232
▁précédemment	-11.4232
▁réparer	-11.4232
▁1960	-11.4237
bla	-11.4237
▁étudier	-11.4237
▁Danemark	-11.4238
▁composant	-11.4238
▁gi	-11.4238
▁Miss	-11.424
▁charmant	-11.4242
▁tournage	-11.4242
▁(24)	-11.4243
urbanisme	-11.4244
▁réglage	-11.4245
irai	-11.4245
bonne	-11.4247
▁appropriée	-11.4248
Bo	-11.4253
▁explorer	-11.4254
▁courtes	-11.4254
▁Off	-11.4256
▁prochainement	-11.4258
ajout	-11.4259
ssée	-11.4261
▁SO	-11.4261
indre	-11.4261
▁salaires	-11.4262
▁passions	-11.4262
▁défauts	-11.4263
reuse	-11.4263
▁Monte	-11.4263
▁flou	-11.4264
tail	-11.4264
▁ayez	-11.4265
infection	-11.4266
▁Sénat	-11.4267
▁Champagne	-11.4267
▁Union	-11.4267
▁déguster	-11.4268
eille	-11.4269
▁soudain	-11.4269
▁ordonnance	-11.427
▁Bis	-11.4272
OK	-11.4274
▁résister	-11.4275
aigne	-11.4276
▁tricot	-11.4277
▁produite	-11.4279
▁urgent	-11.4279
osité	-11.4279
▁remplace	-11.4281
▁diamant	-11.4282
veille	-11.4283
▁mécanismes	-11.4284
four	-11.4284
▁annexe	-11.4285
ku	-11.4286
nels	-11.4287
▁coordination	-11.4291
▁pénal	-11.4291
▁ultime	-11.4293
▁hu	-11.4293
alerte	-11.4295
umé	-11.4296
▁rendue	-11.4296
▁coussin	-11.4297
▁accords	-11.4297
▁chantiers	-11.43
▁négociations	-11.43
▁merveilleuse	-11.4301
dule	-11.4301
▁royale	-11.4303
ound	-11.4303
▁volets	-11.4304
▁duquel	-11.4305
vu	-11.4306
bay	-11.4307
ception	-11.4307
▁exerce	-11.4307
▁Cadre	-11.4309
▁varie	-11.4311
▁guidée	-11.4311
opportunité	-11.4312
▁loisir	-11.4314
▁HP	-11.4317
▁doré	-11.4322
armes	-11.4322
▁Villes	-11.4325
▁Soit	-11.4326
▁cuivre	-11.4326
▁heureusement	-11.4327
asp	-11.4328
phé	-11.4329
▁constituée	-11.4331
▁poussé	-11.4332
assemblée	-11.4334
lent	-11.4336
—	-11.4336
▁bricolage	-11.4338
▁Mouvement	-11.4338
2007	-11.4342
Val	-11.4344
▁Live	-11.4347
▁Cru	-11.4348
8%	-11.4351
▁circuits	-11.4351
▁Coeur	-11.4352
▁10%	-11.4352
ICE	-11.4353
orange	-11.4354
▁opposé	-11.4355
▁partiellement	-11.4355
▁Langue	-11.4355
Zélande	-11.4356
▁dénonce	-11.4356
▁sièges	-11.4356
▁vitrines	-11.4356
▁gre	-11.4357
stein	-11.4359
Ta	-11.4359
▁vintage	-11.4362
▁avocats	-11.4362
èvre	-11.4363
▁plait	-11.4365
lk	-11.4366
▁attirer	-11.4371
▁libéré	-11.4373
▁matérielle	-11.4373
▁salons	-11.4373
▁Contrairement	-11.4374
Li	-11.4374
▁AN	-11.4374
▁Tal	-11.4375
cell	-11.4375
▁inscrite	-11.4376
▁illustrations	-11.4377
▁team	-11.438
▁NE	-11.4382
▁céréales	-11.4383
▁résultant	-11.4383
▁flamme	-11.4383
▁webcam	-11.4384
ó	-11.4388
▁confi	-11.4389
▁Garde	-11.4389
▁pouces	-11.439
lets	-11.4391
▁Vacances	-11.4395
▁tar	-11.4396
augmenter	-11.4396
▁alliance	-11.4396
dress	-11.4397
venez	-11.4397
▁dégâts	-11.44
▁argument	-11.4404
▁Didier	-11.4407
▁mythe	-11.4407
▁Flo	-11.4408
▁nouveauté	-11.4409
▁SNCF	-11.4409
▁fédération	-11.441
▁Dés	-11.441
Ha	-11.441
▁trip	-11.4411
▁immobiliers	-11.4412
▁Compagnie	-11.4412
▁minimale	-11.4414
▁colline	-11.4415
▁automatisé	-11.4415
cadre	-11.4416
imé	-11.4416
▁trésor	-11.4417
▁bouteilles	-11.4418
▁start	-11.4422
▁sainte	-11.4422
▁83	-11.4422
▁té	-11.4422
icité	-11.4426
▁communs	-11.4429
▁retours	-11.4429
▁notaire	-11.4429
chain	-11.443
▁Mary	-11.4431
gestion	-11.4432
▁Mots	-11.4434
▁voisine	-11.4437
▁merveille	-11.4437
▁terroir	-11.4438
▁val	-11.4439
▁respectant	-11.444
CES	-11.4441
▁Tan	-11.4444
▁admis	-11.4444
vance	-11.4446
ogène	-11.4448
▁détermination	-11.4448
▁espère	-11.4448
▁Mémoire	-11.4452
mier	-11.4452
mari	-11.4458
▁Aliments	-11.4459
rv	-11.4461
/5	-11.4462
▁durer	-11.4462
▁accessoire	-11.4464
▁fleuve	-11.4466
idi	-11.4468
gate	-11.4468
ks	-11.4469
▁avancées	-11.4469
erre	-11.447
extrémité	-11.4472
▁Pomp	-11.4474
▁!"	-11.4475
▁rez	-11.4475
▁élégante	-11.4476
▁Internationale	-11.4477
oko	-11.448
▁musiques	-11.448
▁reportage	-11.4481
internet	-11.4482
▁pirate	-11.4483
▁Gabriel	-11.4483
agglomération	-11.4484
▁PARIS	-11.4486
suite	-11.4486
Aide	-11.4486
▁censé	-11.4487
AH	-11.4488
▁supporte	-11.4489
▁soumise	-11.449
▁91	-11.449
▁essence	-11.449
▁boîtier	-11.449
lir	-11.4492
rê	-11.4492
Ou	-11.4493
▁fréquentation	-11.4494
▁pois	-11.4495
nia	-11.4495
▁march	-11.4496
▁fum	-11.4497
▁(25)	-11.4499
angoisse	-11.4501
gas	-11.4502
300	-11.4505
élite	-11.4506
éléments	-11.4507
▁équivalent	-11.4508
▁créative	-11.4508
▁jupe	-11.4508
▁saveurs	-11.4509
▁pair	-11.451
▁bancaires	-11.451
▁Seule	-11.4511
▁universitaires	-11.4512
métrique	-11.4514
▁Travaux	-11.4515
ken	-11.4515
HD	-11.4515
ctor	-11.4516
ouilles	-11.4517
para	-11.4517
▁Ressources	-11.4518
▁Résumé	-11.4524
▁Log	-11.4524
sport	-11.4527
service	-11.4529
▁Gris	-11.4533
▁plateformes	-11.4536
▁valorisation	-11.4539
▁renouvellement	-11.454
▁africain	-11.4542
▁cellule	-11.4542
▁collier	-11.4546
▁planche	-11.4546
▁Mari	-11.4548
empêche	-11.4549
▁modérateur	-11.4549
Empire	-11.455
▁dépression	-11.455
▁RH	-11.455
champ	-11.4551
expliquer	-11.4551
▁CHA	-11.4552
▁projection	-11.4553
▁franchi	-11.4554
▁parait	-11.4555
habitat	-11.4555
▁).	-11.4556
▁compteur	-11.4557
RD	-11.4558
▁certitude	-11.4563
▁protégés	-11.4564
animal	-11.4564
▁méta	-11.4565
▁shopping	-11.4568
▁bla	-11.4568
▁précédents	-11.4569
naise	-11.4571
▁moyennes	-11.4571
▁oreille	-11.4573
▁solitude	-11.4573
ores	-11.4573
/06/	-11.4576
lité	-11.4576
orn	-11.4576
▁PAS	-11.4578
ij	-11.4578
▁respectivement	-11.4579
pol	-11.4582
▁repr	-11.4582
▁ennemi	-11.4583
▁dia	-11.4583
▁présidence	-11.4585
▁spécialité	-11.4586
▁rétractation	-11.4587
▁synthétique	-11.4587
▁yoga	-11.459
▁roue	-11.4594
▁étoile	-11.4594
AE	-11.4594
▁dating	-11.4594
oit	-11.4594
▁couloir	-11.4596
extension	-11.4596
▁exige	-11.4596
▁colonie	-11.4596
▁comparé	-11.4598
▁favorise	-11.4598
▁négociation	-11.4599
▁ret	-11.4599
▁excuse	-11.46
élevage	-11.4602
▁robuste	-11.4602
▁institutionnel	-11.4606
▁Ec	-11.4606
▁ke	-11.4607
▁biodiversité	-11.4609
▁départementale	-11.4609
▁renforcement	-11.4611
▁tou	-11.4611
▁observé	-11.4612
▁Simple	-11.4612
▁More	-11.4613
▁Réalisation	-11.4614
▁Cannes	-11.4614
PH	-11.4615
▁rayonnement	-11.4616
vard	-11.4617
▁Office	-11.4619
engagent	-11.462
▁procurer	-11.462
▁psy	-11.4621
cée	-11.4624
Azur	-11.4624
écrit	-11.4624
▁Parole	-11.4626
▁duo	-11.4627
▁corruption	-11.4627
▁Media	-11.4627
▁atouts	-11.4627
ICA	-11.4628
▁aérienne	-11.463
édi	-11.463
dem	-11.4631
▁intervenants	-11.4631
▁avenue	-11.4633
écouter	-11.4636
▁évolutions	-11.4637
▁AV	-11.4637
▁entouré	-11.4639
▁proviennent	-11.4639
▁PVC	-11.4639
▁game	-11.4644
▁modérateurs	-11.4644
▁Gau	-11.4647
bio	-11.4648
▁séduit	-11.4649
▁Chan	-11.465
▁équipés	-11.465
▁nations	-11.4654
▁indirect	-11.4656
▁Télécharger	-11.4658
ncé	-11.466
▁96	-11.466
▁adressée	-11.4661
▁Objet	-11.4661
▁Football	-11.4664
▁disparaître	-11.4666
▁coller	-11.4667
ido	-11.4669
▁pente	-11.467
▁jouet	-11.4675
▁Read	-11.4676
▁Entrée	-11.4678
▁Ay	-11.4679
▁frappé	-11.4679
▁Time	-11.468
PORT	-11.4683
▁Isabelle	-11.4683
▁master	-11.4684
▁récolte	-11.4684
▁convivial	-11.4685
▁poire	-11.4686
octobre	-11.4688
▁fermés	-11.4688
▁Prince	-11.4689
▁chanter	-11.469
▁honneur	-11.469
▁volumes	-11.4691
pdf	-11.4691
pression	-11.4692
écri	-11.4696
LL	-11.4699
▁Résultat	-11.47
▁Jérusalem	-11.47
▁baignoire	-11.47
▁technicien	-11.4702
▁Os	-11.4705
▁désolé	-11.4705
▁policier	-11.4705
▁compositeur	-11.4707
▁apportent	-11.4707
▁planification	-11.4708
▁réunir	-11.4708
▁accro	-11.4709
tées	-11.4711
▁délicate	-11.4712
▁contra	-11.4712
▁honor	-11.4712
▁Activités	-11.4715
▁Audio	-11.4716
▁volontiers	-11.4719
▁inverse	-11.4722
▁sensations	-11.4723
▁immédiat	-11.4725
late	-11.4728
▁passés	-11.4729
▁Poly	-11.4731
yan	-11.4732
▁Ana	-11.4732
▁pis	-11.4734
hab	-11.4736
nor	-11.4737
▁applique	-11.4737
▁fêter	-11.4738
habite	-11.4742
▁Bad	-11.4743
informer	-11.4743
aucune	-11.4744
▁reconnais	-11.4745
▁Norvège	-11.4746
issi	-11.475
▁aval	-11.475
▁indiqués	-11.4753
▁20%	-11.4753
Mé	-11.4753
▁Champion	-11.4754
▁Act	-11.4755
▁he	-11.4756
▁brune	-11.4756
▁Style	-11.4756
/10/	-11.4758
vois	-11.4759
urier	-11.4763
▁polar	-11.4764
▁affection	-11.4768
Service	-11.4768
▁bourg	-11.4769
pres	-11.477
▁écho	-11.4772
assainissement	-11.4774
▁marron	-11.4776
vais	-11.4776
itch	-11.4777
turb	-11.4779
▁Fo	-11.4779
▁hydro	-11.4779
cam	-11.4781
▁instants	-11.4781
▁ondes	-11.4782
▁déb	-11.4782
▁rapporte	-11.4783
▁cinquième	-11.4784
▁validé	-11.4785
▁Sony	-11.4786
lem	-11.4789
▁revers	-11.4793
effectue	-11.4794
▁tv	-11.4795
▁spectateurs	-11.4796
▁Frank	-11.4796
▁demandez	-11.4797
mination	-11.4799
▁qualifiés	-11.4799
▁enlever	-11.4799
▁dramatique	-11.48
hot	-11.4801
▁méditation	-11.4802
▁rigide	-11.4802
▁francophones	-11.4803
▁Expert	-11.4803
parole	-11.4803
▁chaises	-11.4805
▁subit	-11.4808
▁Vue	-11.4808
ei	-11.4809
chen	-11.4809
▁apres	-11.4813
▁définit	-11.4814
tir	-11.4814
aro	-11.4814
fiction	-11.4816
▁rôles	-11.4817
▁filtres	-11.4817
▁Tant	-11.4818
▁succession	-11.4818
▁aéroport	-11.4819
tition	-11.4819
Ab	-11.4821
▁Basse	-11.4823
-17	-11.4824
▁Fleur	-11.4825
▁broyeur	-11.4827
text	-11.4827
▁poursuite	-11.4828
▁poker	-11.4832
plé	-11.4832
▁toilettes	-11.4833
▁Assurez	-11.4834
▁sauvages	-11.4843
▁Hall	-11.4845
▁sérieusement	-11.4847
▁violon	-11.4847
por	-11.4848
▁forment	-11.4849
▁mentions	-11.4849
▁flèche	-11.485
▁NC	-11.4852
▁couteau	-11.4853
▁appui	-11.4853
égal	-11.4855
deux	-11.4857
ouch	-11.4858
historique	-11.4859
▁̃‰	-11.4859
▁initié	-11.4859
rié	-11.4859
Dis	-11.4861
enseigne	-11.4862
▁récits	-11.4862
▁souligner	-11.4863
EI	-11.4864
itre	-11.4864
▁législatives	-11.4865
▁Gon	-11.4866
▁musculaire	-11.4868
▁évolué	-11.4868
▁Marche	-11.4872
▁verrez	-11.4873
▁ressentir	-11.4873
▁décédé	-11.4875
via	-11.4875
▁lève	-11.4877
▁Supérieur	-11.4877
▁métallique	-11.4878
▁prononcé	-11.4881
▁collectifs	-11.4882
▁âgé	-11.4883
▁Street	-11.4884
Tu	-11.4884
Bou	-11.4885
mmer	-11.4885
▁Fri	-11.4886
ules	-11.4889
▁accorde	-11.4889
▁Roger	-11.4892
▁SAS	-11.4893
▁Utilisation	-11.4896
infrastructure	-11.4898
▁soigneusement	-11.4899
▁astrologues	-11.4899
▁(29)	-11.49
FS	-11.4902
▁79	-11.4903
▁Capital	-11.4904
▁massacre	-11.4905
▁Découverte	-11.4909
▁Meetic	-11.4909
▁chemise	-11.4909
▁Week	-11.4909
▁fleuri	-11.491
lab	-11.491
▁astrologie	-11.4911
ody	-11.4912
mini	-11.4912
▁fondement	-11.4915
TES	-11.4917
▁divisé	-11.4917
▁ajoutez	-11.4917
▁Lettre	-11.4917
▁clos	-11.4917
▁offensif	-11.4918
▁parisien	-11.4918
nelles	-11.492
▁cloche	-11.4921
▁utilis	-11.4923
▁pleins	-11.4923
Anne	-11.4923
▁intermédiaire	-11.4923
▁syn	-11.4924
▁ok	-11.4924
umi	-11.4926
▁Claire	-11.4927
hygiène	-11.4928
°4	-11.493
▁chaleureuse	-11.4932
▁silhouette	-11.4934
▁sc	-11.4934
tenant	-11.4935
▁tracé	-11.4937
bet	-11.4938
▁Milan	-11.4939
▁mecs	-11.494
live	-11.494
▁Bol	-11.4941
EG	-11.4941
▁audience	-11.4942
▁valise	-11.4944
▁battu	-11.4946
▁Actuellement	-11.4946
alors	-11.4947
SD	-11.4948
▁surement	-11.4948
▁concepts	-11.4949
habit	-11.495
implantation	-11.4951
IGN	-11.4955
▁entretenu	-11.4956
▁remercions	-11.4959
▁meublé	-11.4959
QI	-11.4959
▁Pic	-11.496
▁reconnus	-11.4963
Ang	-11.4964
HA	-11.4965
▁98	-11.4965
▁nâ	-11.4967
▁impressionnant	-11.4968
▁Application	-11.4968
▁étendue	-11.4972
print	-11.4972
▁réglé	-11.4976
loc	-11.4977
▁traverse	-11.4977
▁gouvernance	-11.4978
▁oeufs	-11.4979
▁sexuels	-11.4979
exploration	-11.4981
▁dons	-11.4983
▁apparemment	-11.4984
▁gourmande	-11.4986
écris	-11.4986
▁(26)	-11.4991
▁reposer	-11.4991
▁Section	-11.4993
▁compact	-11.4994
▁190	-11.4996
blo	-11.4996
▁amène	-11.4997
▁conquête	-11.5
▁Audi	-11.5002
▁habitat	-11.5003
taires	-11.5004
▁passages	-11.5004
▁Station	-11.5005
▁concernées	-11.5006
▁causé	-11.5009
▁RC	-11.501
▁itinéraire	-11.5012
▁---	-11.5013
▁cyber	-11.5013
efforce	-11.5014
▁Hello	-11.5014
▁Ur	-11.5015
▁acoustique	-11.5017
▁1,5	-11.5017
▁apparu	-11.5018
▁routier	-11.502
▁soigner	-11.5021
atrices	-11.5021
▁Bricolage	-11.5022
▁analogie	-11.5022
rick	-11.5023
▁datant	-11.5025
agression	-11.5026
▁tape	-11.5027
▁Napoléon	-11.5029
▁hybride	-11.5029
ément	-11.5029
▁bénéfices	-11.5031
▁Cul	-11.5032
▁branches	-11.5032
▁religieuses	-11.5035
▁LG	-11.5036
▁(13	-11.5036
▁1989	-11.5036
▁Seconde	-11.5037
ars	-11.5037
▁Nov	-11.5038
▁pochette	-11.5039
▁vérifié	-11.504
▁IM	-11.504
▁substances	-11.5045
▁favori	-11.5045
▁envoi	-11.5046
iat	-11.5046
udo	-11.5047
▁verres	-11.5047
▁aussitôt	-11.5047
▁pluri	-11.5049
▁métropolitaine	-11.5049
nÃ	-11.505
bis	-11.505
▁Angeles	-11.5051
ister	-11.5053
▁cuillère	-11.5054
▁Autant	-11.5054
▁raisin	-11.5055
▁Social	-11.5055
LS	-11.5057
▁suicide	-11.5061
espér	-11.5063
▁Poissons	-11.5063
femme	-11.5064
DF	-11.5065
IDE	-11.5066
▁Téléchargez	-11.5067
▁mettez	-11.5067
enregistrer	-11.5071
▁hectares	-11.5073
▁superficie	-11.5076
▁contributions	-11.5077
▁phrases	-11.5078
hel	-11.5078
▁circ	-11.5078
▁̈me	-11.5079
▁péril	-11.5079
osa	-11.5082
TRA	-11.5083
tabli	-11.5085
▁protéines	-11.5085
▁validité	-11.5086
▁Publicité	-11.5087
▁interactive	-11.5087
▁syndicat	-11.5087
▁espagnole	-11.5089
yst	-11.5089
▁BA	-11.5089
▁travaillant	-11.5091
▁Membres	-11.5093
EAU	-11.5094
▁Africa	-11.5094
▁gêne	-11.5096
▁Fran	-11.5098
▁heurt	-11.5099
▁grise	-11.5099
▁Voyez	-11.5102
vor	-11.5102
▁fous	-11.5102
mate	-11.5103
▁imm	-11.5106
▁Ap	-11.5107
▁primordial	-11.5108
cord	-11.511
porte	-11.5111
▁dirait	-11.5111
Comp	-11.5112
▁Finalement	-11.5113
▁office	-11.5113
interface	-11.5117
stream	-11.5119
▁Benjamin	-11.5121
▁Rejoignez	-11.5124
▁musulman	-11.5125
▁voler	-11.5125
..."	-11.5125
▁coins	-11.5126
▁opposer	-11.5127
cio	-11.5127
▁distinction	-11.5127
ué	-11.5127
▁Land	-11.5127
="	-11.5129
▁continuent	-11.5129
SO	-11.5129
gion	-11.513
▁incarne	-11.5131
▁pénale	-11.5133
▁GT	-11.5134
▁javascript	-11.5134
▁répertori	-11.5134
▁Figaro	-11.5134
▁passionnée	-11.5136
▁Julie	-11.5137
▁âgés	-11.5138
▁hâte	-11.5138
▁laine	-11.5138
▁lentement	-11.5141
instrument	-11.5142
commande	-11.5142
tter	-11.5142
▁82	-11.5143
▁sanctions	-11.5144
▁compa	-11.5145
▁Bag	-11.5146
▁soldes	-11.5147
▁religions	-11.5147
▁commerçants	-11.5149
▁vid	-11.5151
▁Vallée	-11.5151
onner	-11.5151
Atlantique	-11.5152
▁chrétien	-11.5152
▁portabilité	-11.5153
▁connectés	-11.5154
▁isolation	-11.5154
▁Sub	-11.5155
▁distinguer	-11.5155
connect	-11.5156
▁américaines	-11.5158
▁contraste	-11.5158
▁Sand	-11.5158
▁qualit	-11.5158
cra	-11.5159
▁devises	-11.5163
▁guilde	-11.5163
▁dragon	-11.5163
▁directives	-11.5165
étage	-11.5166
ONT	-11.5167
▁Ford	-11.5167
SION	-11.5167
▁défenseur	-11.5168
omo	-11.5169
AZ	-11.5169
oz	-11.517
800	-11.517
norm	-11.5171
maison	-11.5171
▁réels	-11.5172
nac	-11.5173
▁ambitieux	-11.5173
pprovisionnement	-11.5173
▁simulation	-11.5174
objets	-11.5174
clus	-11.5174
▁neuro	-11.5175
Claude	-11.5178
▁existant	-11.518
êche	-11.5181
▁Avez	-11.5181
▁animation	-11.5182
▁chaussure	-11.5182
roma	-11.5184
▁notions	-11.5184
hem	-11.5184
▁Vé	-11.5185
▁2004,	-11.5186
▁contrainte	-11.5186
▁futures	-11.5186
▁Corn	-11.5188
inspire	-11.5191
omètre	-11.5191
▁évolue	-11.5192
▁Durée	-11.5193
▁MS	-11.5194
▁paye	-11.5194
▁renommée	-11.5195
▁??	-11.52
▁350	-11.5204
▁Interview	-11.5205
Di	-11.5205
▁Sall	-11.5205
▁Dal	-11.5208
▁associées	-11.5208
▁Dernière	-11.5209
YS	-11.5209
▁diriger	-11.5211
enseignant	-11.5213
▁Robin	-11.5215
.11	-11.5217
Arc	-11.5219
▁Midi	-11.522
isseur	-11.522
▁SD	-11.5221
Astuce	-11.5221
▁Documentaires	-11.5222
▁Wo	-11.5222
For	-11.5223
éron	-11.5224
mel	-11.5224
▁obtenez	-11.5224
▁Secteur	-11.5224
▁Bouche	-11.5226
vid	-11.5227
glement	-11.5227
▁convivialité	-11.5229
▁bague	-11.5229
▁distinct	-11.523
р	-11.5231
▁Tru	-11.5231
ondes	-11.5233
index	-11.5234
▁cassé	-11.5234
▁régi	-11.5235
Tra	-11.5236
▁générique	-11.5237
▁temp	-11.524
occupation	-11.5241
▁déclenche	-11.5242
▁relief	-11.5242
▁désire	-11.5242
▁assiette	-11.5243
▁institut	-11.5244
▁réflexions	-11.5244
▁tasse	-11.5245
▁lesbienne	-11.5246
▁habitant	-11.5246
▁façons	-11.5247
élo	-11.5247
▁Up	-11.5249
quill	-11.5249
▁réductions	-11.525
▁Chronique	-11.5251
▁Jeunes	-11.5251
▁Angel	-11.5252
▁(30)	-11.5254
▁Ev	-11.5255
ifiez	-11.5255
cine	-11.5255
▁prouve	-11.5256
▁Blu	-11.5256
OD	-11.5257
▁mécanisme	-11.5258
▁blessures	-11.5259
▁Jos	-11.5259
▁antique	-11.5262
▁sain	-11.5265
▁Dessin	-11.5266
▁graphisme	-11.5267
tex	-11.5267
▁Base	-11.527
▁radi	-11.527
▁assise	-11.5271
▁Express	-11.5272
▁initial	-11.5272
▁juifs	-11.5272
▁lumineuse	-11.5272
tance	-11.5275
▁sentiers	-11.5276
▁color	-11.5277
implant	-11.5279
▁visuels	-11.528
▁laissent	-11.528
▁clin	-11.5281
▁Sel	-11.5282
édit	-11.5282
▁généraliste	-11.5285
▁spécialités	-11.5285
▁(31)	-11.5288
Office	-11.5288
▁store	-11.5289
▁climatisation	-11.5289
▁doué	-11.529
▁marquer	-11.529
9%	-11.529
▁Canal	-11.5291
▁Classement	-11.5298
tig	-11.5298
dir	-11.5298
▁surprenant	-11.5304
ory	-11.5306
▁bars	-11.5307
ride	-11.5307
▁inscrivez	-11.5309
oral	-11.531
enfin	-11.531
▁impose	-11.5311
▁installés	-11.5311
▁devenus	-11.5311
▁suppl	-11.5311
▁jet	-11.5312
▁Appuyez	-11.5316
▁Direct	-11.5316
▁artisanale	-11.5318
▁Ze	-11.5318
▁canaux	-11.5319
▁pouce	-11.532
▁neufs	-11.532
▁ordinateurs	-11.532
▁Sor	-11.5325
▁détection	-11.5325
▁poches	-11.5327
▁Colombie	-11.5329
▁domination	-11.533
sident	-11.5332
▁résidentiel	-11.5333
▁Fab	-11.5334
▁tenues	-11.5334
pens	-11.5338
essaie	-11.5339
▁engagés	-11.5341
▁éditeur	-11.5342
▁femelle	-11.5345
mesure	-11.5347
▁épices	-11.5347
▁gout	-11.5347
▁confusion	-11.5348
sultat	-11.5348
▁savant	-11.5348
field	-11.535
▁entrées	-11.5351
▁recyclage	-11.5352
▁répétition	-11.5352
croix	-11.5352
▁soumises	-11.5352
▁fumée	-11.5353
▁sortant	-11.5353
▁indien	-11.5354
▁ambition	-11.5356
▁stationnement	-11.5357
▁veine	-11.5357
▁musulmane	-11.5359
ude	-11.5359
▁Argent	-11.536
▁interprété	-11.5361
▁Idées	-11.5365
apa	-11.5366
Inter	-11.5368
▁mÃ	-11.5369
échanges	-11.537
▁ration	-11.537
▁maitre	-11.537
▁sensibilisation	-11.5371
▁dominant	-11.5373
▁trentaine	-11.5375
▁Besoin	-11.5375
herbe	-11.5376
-20	-11.5376
immeuble	-11.5377
▁Xavier	-11.5378
▁débuter	-11.538
▁laver	-11.538
▁intelligence	-11.5382
▁batteries	-11.5383
estime	-11.5384
rène	-11.5384
▁dotée	-11.5384
▁muscles	-11.5385
▁cessé	-11.5386
▁canalisation	-11.5387
▁fantaisie	-11.5388
▁puissants	-11.5389
▁variées	-11.5389
rad	-11.539
▁exotique	-11.5391
Ag	-11.5392
▁découpe	-11.5394
▁Nathalie	-11.5394
▁Quatre	-11.5394
▁claires	-11.5397
▁métropole	-11.5398
▁Hy	-11.5399
▁restriction	-11.5401
▁déplacé	-11.5401
▁mien	-11.5401
▁bug	-11.5402
▁traverser	-11.5402
▁voyance	-11.5402
▁Sym	-11.5404
▁Cab	-11.5405
▁continuité	-11.5406
▁aromates	-11.5408
▁statistique	-11.5409
rois	-11.5411
illée	-11.5414
▁trous	-11.5415
VEN	-11.5416
▁ailes	-11.5419
▁directive	-11.542
▁VF	-11.5421
mart	-11.5424
yp	-11.5424
▁Plantes	-11.5425
▁photographique	-11.5425
çage	-11.5426
ison	-11.5427
▁individuels	-11.5427
▁compétente	-11.5429
▁2019,	-11.543
▁brique	-11.5431
▁sépare	-11.5431
ALE	-11.5433
▁QU	-11.5433
▁Mohamed	-11.5434
▁Ep	-11.5435
▁cumul	-11.5437
▁vedette	-11.5437
▁Classique	-11.5437
couvert	-11.5439
▁armées	-11.5439
abandon	-11.544
lerie	-11.5441
▁électricité	-11.5442
▁faisaient	-11.5442
▁Combien	-11.5442
▁71	-11.5442
▁église	-11.5443
▁Piscine	-11.5444
lain	-11.5445
▁parvient	-11.5446
▁Dragon	-11.5446
▁Ven	-11.5448
▁réputé	-11.5449
▁lâcher	-11.5449
employeur	-11.545
cit	-11.5452
▁Baby	-11.5453
▁alternatives	-11.5454
▁Mans	-11.5454
▁Bande	-11.5455
Martin	-11.5456
ONS	-11.5456
▁magnétique	-11.5459
opérateur	-11.5459
pose	-11.5461
▁passif	-11.5462
architecte	-11.5463
▁ordres	-11.5463
▁smartphones	-11.5465
git	-11.5465
▁participent	-11.5466
▁confie	-11.5467
▁81	-11.5467
▁Production	-11.5471
▁trio	-11.5473
▁symbolise	-11.5477
▁nourri	-11.5478
dar	-11.5481
fusion	-11.5481
▁Rég	-11.5482
▁souffrir	-11.5483
▁académique	-11.5484
soft	-11.5486
▁déroulement	-11.5486
Petit	-11.5488
▁Caisse	-11.5488
▁stocks	-11.5488
▁déficit	-11.5488
▁Tél	-11.5489
▁problématiques	-11.5493
▁(20	-11.5495
▁Langues	-11.5498
▁Gor	-11.5498
eva	-11.5499
ship	-11.55
▁Animation	-11.5502
▁Sim	-11.5503
▁cigarette	-11.5505
▁Nancy	-11.5506
▁juive	-11.5507
espérance	-11.5507
▁reproduire	-11.5507
▁cirque	-11.5507
▁Moscou	-11.5511
▁chaudière	-11.5511
▁quotidiennement	-11.5512
bie	-11.5512
▁Youtube	-11.5514
▁comparatif	-11.5514
Du	-11.5515
édic	-11.5517
▁élargi	-11.5519
ood	-11.552
▁Contenu	-11.5521
▁Zo	-11.5522
▁housse	-11.5522
irent	-11.5523
▁EP	-11.5524
▁aiguille	-11.5526
▁Portail	-11.5528
▁collectivité	-11.5528
▁prélèvement	-11.553
▁gravure	-11.553
în	-11.5531
atmosphère	-11.5534
▁carrelage	-11.5534
▁prudent	-11.5534
▁élémentaire	-11.5535
▁Ajoutez	-11.5536
atti	-11.5536
▁fatigué	-11.5537
RM	-11.5538
▁Brun	-11.5538
Forum	-11.5538
▁Tarif	-11.554
stru	-11.5541
▁maintenu	-11.5541
▁travaillons	-11.5542
▁horizon	-11.5544
▁(27)	-11.5545
▁remplie	-11.5545
illet	-11.5546
lante	-11.5547
icule	-11.5547
▁**	-11.5547
▁baisser	-11.5548
excellence	-11.5551
▁allure	-11.5553
Organisation	-11.5554
▁renforce	-11.5555
Denis	-11.5555
▁dév	-11.5556
▁interprète	-11.5559
▁pâtisserie	-11.5561
▁Définition	-11.5561
▁dérange	-11.5561
▁entrain	-11.5561
▁sondages	-11.5562
▁Laboratoire	-11.5563
▁standards	-11.5567
encadrement	-11.5568
▁recueillir	-11.5568
▁Seuls	-11.5568
▁sÃ	-11.5569
▁serviette	-11.5569
égo	-11.5569
ove	-11.5569
▁imaginaire	-11.5571
ologiques	-11.5572
▁Ann	-11.5574
▁nomination	-11.5574
▁publiées	-11.5575
▁rhum	-11.5576
▁libertin	-11.5577
▁coutume	-11.5577
▁discrétion	-11.5581
▁juridiction	-11.5581
oter	-11.5582
▁arriv	-11.5583
life	-11.5584
▁ticket	-11.5584
▁automne	-11.5584
▁complètes	-11.5584
▁bienfaits	-11.5584
red	-11.5585
▁surf	-11.5586
DP	-11.5587
▁Pass	-11.5587
Nos	-11.5589
▁déplace	-11.559
▁faune	-11.559
▁Licence	-11.5591
▁régionaux	-11.5591
▁transparente	-11.5592
▁Hotel	-11.5592
▁tit	-11.5592
▁tarte	-11.5594
▁précoce	-11.5594
▁orale	-11.5594
▁béni	-11.5595
attache	-11.5595
▁parlementaire	-11.5595
▁fiables	-11.5596
▁DC	-11.5596
▁ordonné	-11.5598
▁blé	-11.5599
▁placés	-11.5599
▁cimetière	-11.5601
ennes	-11.5602
▁Local	-11.5604
▁fascinant	-11.5604
▁stocker	-11.5605
▁Irlande	-11.5606
▁Ouvert	-11.5607
ml	-11.5609
CF	-11.5613
▁fasc	-11.5613
▁tiroir	-11.5614
▁vétérinaire	-11.5614
▁clause	-11.5615
Ac	-11.5615
▁Essayez	-11.5615
▁bientÃ	-11.5616
▁sauter	-11.562
tral	-11.562
▁Hôtels	-11.5621
▁falloir	-11.5621
illusion	-11.5622
appe	-11.5622
▁Méthode	-11.5625
▁communiquées	-11.5625
well	-11.5625
▁coordonn	-11.5626
▁organisées	-11.5627
Go	-11.5628
élimination	-11.5628
▁arm	-11.563
▁1945	-11.5631
▁amples	-11.5632
▁Franc	-11.5632
▁signée	-11.5633
▁intéressantes	-11.5633
▁banlieue	-11.5635
▁disciplines	-11.5635
ward	-11.5635
▁garanti	-11.5636
▁présidente	-11.5638
DO	-11.5638
▁souhaitant	-11.5639
▁ange	-11.564
▁glisser	-11.5643
▁bijou	-11.5644
▁dirais	-11.5644
▁Met	-11.5644
▁Acc	-11.5645
▁charger	-11.5646
▁purement	-11.5648
▁chimique	-11.5648
▁recommandée	-11.5649
▁Dimensions	-11.565
house	-11.5652
isait	-11.5652
▁modeste	-11.5652
▁verbe	-11.5652
▁exacte	-11.5653
▁vulnérable	-11.5655
▁BO	-11.5656
▁démontre	-11.5657
alement	-11.5657
▁ICI	-11.566
▁éliminer	-11.5661
▁Chemin	-11.5662
▁contribuent	-11.5663
▁Recrutement	-11.5665
nité	-11.5665
ampoule	-11.5666
▁veiller	-11.5667
▁fausses	-11.5668
▁surveiller	-11.5669
▁inscriptions	-11.5671
▁survivre	-11.5672
▁oeil	-11.5674
▁contrôles	-11.5674
▁PL	-11.5675
▁regardant	-11.5677
▁Alsace	-11.5678
▁démarrer	-11.5679
▁Réponse	-11.568
▁retourné	-11.568
mile	-11.568
▁manqué	-11.568
▁incident	-11.5683
▁dégagé	-11.5686
email	-11.5689
▁Rom	-11.5689
▁occasions	-11.5689
▁observe	-11.5691
▁transparent	-11.5692
Alsace	-11.5693
▁index	-11.5696
▁Contre	-11.5697
rifi	-11.5697
etti	-11.5697
▁ajout	-11.5697
gén	-11.5698
▁saga	-11.57
▁Rex	-11.57
exécut	-11.57
▁partagent	-11.5701
vée	-11.5703
interroger	-11.5705
étape	-11.5705
▁Articles	-11.5705
AO	-11.5706
▁déclin	-11.5709
GI	-11.571
▁Phil	-11.5711
▁XXe	-11.5713
▁hard	-11.5713
Catégorie	-11.5713
tiers	-11.5713
▁sale	-11.5713
▁ban	-11.5714
▁oublie	-11.5715
▁mobil	-11.5715
▁tenus	-11.5715
▁exploité	-11.5716
Orléans	-11.5716
EB	-11.5716
▁imprimante	-11.5717
chette	-11.5718
interrogation	-11.5718
▁iPad	-11.5719
в	-11.5719
▁Présidentielle	-11.5719
▁Commun	-11.5721
▁gang	-11.5721
▁espérant	-11.5723
▁aîné	-11.5724
▁priorités	-11.5725
lées	-11.5726
▁parution	-11.5726
ISE	-11.5728
▁Dernier	-11.5728
LD	-11.5729
▁courants	-11.5729
▁éternelle	-11.5731
▁meurt	-11.5732
▁matinée	-11.5732
▁renouvelables	-11.5733
chin	-11.5733
▁brosse	-11.5733
▁Métaux	-11.5733
TR	-11.5736
▁profité	-11.5737
▁détecter	-11.5737
▁supérieures	-11.5738
▁Question	-11.5739
▁stagiaire	-11.574
▁dépose	-11.574
▁Chau	-11.5741
vide	-11.5744
▁prêtre	-11.5746
▁handicapées	-11.5747
▁Pack	-11.5748
▁VTT	-11.575
▁dignité	-11.575
▁préoccupations	-11.5751
PM	-11.5753
▁substance	-11.5753
▁robinet	-11.5753
▁aisément	-11.5754
▁subvention	-11.5754
eck	-11.5754
▁Philip	-11.5755
▁privilège	-11.5757
acteurs	-11.5757
▁intégration	-11.5759
Dame	-11.5759
TMai	-11.5761
▁comédien	-11.5762
▁vitrage	-11.5762
▁âmes	-11.5762
▁hôtes	-11.5763
▁chercheur	-11.5765
sac	-11.5766
▁mystérieux	-11.5767
▁délicieuse	-11.5767
human	-11.5768
▁Entrez	-11.577
NES	-11.577
▁atmosphère	-11.5771
▁obligatoires	-11.5771
▁consacrer	-11.5771
▁ferai	-11.5773
▁tromper	-11.5774
▁Acheter	-11.5774
▁Color	-11.5775
▁messe	-11.5776
▁voy	-11.5778
écrivain	-11.5778
▁monétaire	-11.5781
▁contribué	-11.5783
mot	-11.5784
▁dominante	-11.5784
▁Us	-11.5784
▁rajouter	-11.5785
▁Hauts	-11.5785
▁accordée	-11.5785
horreur	-11.5792
▁fus	-11.5794
aube	-11.5795
CL	-11.5796
rue	-11.5797
▁Route	-11.5798
▁ombre	-11.5801
oeuf	-11.5801
{	-11.5802
▁Aquitaine	-11.5803
▁éd	-11.5804
▁diminution	-11.5805
▁Fred	-11.5809
▁spammeurs	-11.5812
▁rage	-11.5812
ificateur	-11.5812
enfer	-11.5813
▁Feu	-11.5813
métrage	-11.5815
▁institution	-11.5816
iro	-11.5817
▁panique	-11.5818
▁blague	-11.5818
orme	-11.5819
▁collègue	-11.582
▁véritables	-11.5826
ping	-11.5827
▁trés	-11.5828
▁Autriche	-11.5828
▁pharmaceutique	-11.5829
▁Hel	-11.5831
kan	-11.5834
▁évite	-11.5835
uter	-11.5836
▁déteste	-11.5837
type	-11.5839
▁annoncer	-11.584
▁exemplaire	-11.5841
▁Math	-11.5841
Mer	-11.5842
accompagner	-11.5842
dium	-11.5843
▁générer	-11.5843
▁créatif	-11.5845
▁fluo	-11.5846
▁comm	-11.5846
▁fines	-11.5847
▁Coucou	-11.5848
▁malheur	-11.5848
▁bru	-11.5848
▁Portes	-11.5849
assure	-11.5854
Garonne	-11.5855
▁Double	-11.5861
▁sauvé	-11.5861
▁rural	-11.5861
▁Marne	-11.5863
▁prévus	-11.5864
▁Moulin	-11.5864
▁rouler	-11.5865
▁bénéfique	-11.5865
▁timide	-11.5867
▁Chapitre	-11.5867
▁nette	-11.587
ador	-11.587
▁Canadien	-11.5871
▁serré	-11.5871
▁conçus	-11.5872
Education	-11.5872
imagination	-11.5872
-16	-11.5873
ndi	-11.5875
▁fédérale	-11.5875
▁adorable	-11.5877
▁Court	-11.5878
artisan	-11.5878
▁connues	-11.5879
▁éclairé	-11.588
pal	-11.588
lock	-11.588
▁armoire	-11.5881
▁tomates	-11.5882
▁clo	-11.5884
▁class	-11.5884
▁97	-11.5886
▁Nike	-11.5886
▁imaginé	-11.5886
imposer	-11.5886
▁démontrer	-11.5888
▁domine	-11.5888
▁robes	-11.5889
▁actualité	-11.5889
coute	-11.5891
▁pervers	-11.5892
▁poil	-11.5894
▁>>	-11.5894
▁céramique	-11.5898
▁sacrifice	-11.5898
▁teinte	-11.5898
▁murale	-11.5901
▁émet	-11.5901
▁bords	-11.5901
▁Mos	-11.5905
▁variations	-11.5906
II	-11.5908
▁correcte	-11.5909
▁musicien	-11.5909
titude	-11.591
▁valoriser	-11.5916
▁antérieure	-11.5917
▁ikea	-11.5919
▁manquez	-11.5919
▁témoigne	-11.592
adhésion	-11.592
▁pap	-11.5923
▁carrés	-11.5923
row	-11.5924
CD	-11.5926
▁Désolé	-11.5926
▁PR	-11.5926
tabilis	-11.5928
▁LI	-11.593
Op	-11.5931
morph	-11.5932
▁généreuse	-11.5933
▁électeurs	-11.5933
▁divine	-11.5933
▁RGPD	-11.5938
▁Conception	-11.5939
▁enrichi	-11.594
▁suffisante	-11.5942
-15	-11.595
▁divertissement	-11.595
▁solde	-11.595
▁(14	-11.595
▁Problème	-11.5951
▁Essai	-11.5951
▁impressionnante	-11.5952
donné	-11.5954
verse	-11.5954
Christ	-11.5955
▁retire	-11.5956
▁apportée	-11.5957
▁Justin	-11.596
▁solides	-11.5963
tivité	-11.5963
▁Hongrie	-11.5963
▁médiateur	-11.5965
▁Fourni	-11.5965
▁Mathieu	-11.5965
ivement	-11.5966
▁départemental	-11.5966
▁diplomatique	-11.5968
▁soul	-11.5969
▁apprécie	-11.5971
▁polyvalent	-11.5971
▁Chap	-11.5975
▁territoriale	-11.5975
▁vagues	-11.5977
ône	-11.5977
▁Entreprises	-11.5977
▁Ét	-11.5978
▁vampire	-11.5978
▁figures	-11.598
▁rendus	-11.5981
gorge	-11.5981
bot	-11.5983
▁confirmées	-11.5984
▁assistant	-11.5984
▁concernée	-11.5984
▁roses	-11.5985
▁épais	-11.5987
zen	-11.5988
▁dépit	-11.5991
Ed	-11.5991
▁fuir	-11.5994
▁Nav	-11.5994
sept	-11.5995
▁impeccable	-11.5996
blé	-11.5997
▁solitaire	-11.6002
zan	-11.6002
abili	-11.6003
PT	-11.6003
▁Hugo	-11.6007
▁décroissante	-11.6007
▁vendeurs	-11.6008
▁Rouen	-11.6008
▁Parisien	-11.6009
▁YouTube	-11.601
vos	-11.601
▁ciblées	-11.6012
africain	-11.6012
▁bébés	-11.6012
▁équitable	-11.6013
▁routière	-11.6013
▁gentille	-11.6014
▁remarques	-11.6016
▁chêne	-11.6017
▁invitation	-11.6017
▁actu	-11.6019
▁devoirs	-11.6019
ider	-11.6021
▁LO	-11.6023
émie	-11.6024
▁Thies	-11.6025
▁inconnue	-11.6027
▁questionnaire	-11.6028
▁Syn	-11.6028
zé	-11.6028
▁cur	-11.6029
▁pertinence	-11.6031
▁pilotage	-11.6031
▁abouti	-11.6032
▁contractuelle	-11.6033
▁transféré	-11.6034
/02/	-11.6037
ndr	-11.6037
▁traductions	-11.6038
▁Arc	-11.604
idéal	-11.6043
▁facettes	-11.6044
▁major	-11.6045
▁opérationnel	-11.6046
▁Global	-11.6049
▁Maman	-11.6049
▁fonctionnelle	-11.6049
▁Charlie	-11.6052
▁pizza	-11.6052
▁Juifs	-11.6052
cision	-11.6053
▁Tir	-11.6054
Information	-11.6054
Comm	-11.6055
▁Herbes	-11.6055
▁weekend	-11.6057
▁explicite	-11.6057
▁vieilles	-11.6058
▁Nintendo	-11.6059
▁implanté	-11.606
▁doublé	-11.606
▁russes	-11.6061
avions	-11.6061
comp	-11.6062
▁épaules	-11.6062
▁vertical	-11.6064
product	-11.6064
▁Roy	-11.6066
▁dépendant	-11.6067
▁expédition	-11.607
▁spécifiquement	-11.6074
Grand	-11.6075
CM	-11.6075
▁Commercial	-11.6076
uti	-11.6078
▁visa	-11.6078
nistes	-11.6078
▁FF	-11.6079
▁Infos	-11.608
▁Eau	-11.6081
▁tensions	-11.6083
▁fourniture	-11.6087
croissant	-11.6088
arde	-11.6092
▁Bélier	-11.6092
accompagn	-11.6094
▁TH	-11.6096
Mont	-11.6096
allemand	-11.6096
▁lunaire	-11.6097
Mais	-11.6098
termin	-11.6098
▁mince	-11.61
lance	-11.6101
sistance	-11.6102
▁décharge	-11.6102
▁fraîcheur	-11.6105
▁Burkina	-11.6105
Gu	-11.6105
pond	-11.6106
▁RSS	-11.6106
éclat	-11.6107
allais	-11.6107
office	-11.6108
▁AP	-11.6113
▁déploiement	-11.6114
È	-11.6117
oubli	-11.6118
▁Mir	-11.6118
▁merde	-11.6118
▁procure	-11.6119
▁spiritualité	-11.6119
▁}	-11.6119
AUX	-11.6119
▁Gla	-11.6122
▁Dakar	-11.6123
▁ouvriers	-11.6123
▁gigantesque	-11.6126
▁sphère	-11.6126
▁téléchargé	-11.613
▁renvoie	-11.6132
systématiquement	-11.6132
▁Californie	-11.6133
▁littéraires	-11.6135
communications	-11.6135
attraction	-11.6136
▁portugais	-11.6138
▁mortel	-11.6139
Jacques	-11.6139
▁plaisant	-11.6141
▁reconstruction	-11.6142
échappement	-11.6142
▁séquence	-11.6143
▁Assemblée	-11.6144
▁levier	-11.6144
▁tranquillité	-11.6144
▁125	-11.6144
▁abonnements	-11.6144
▁étages	-11.6145
▁espérer	-11.6147
▁imagination	-11.6148
▁pattes	-11.6149
▁adversaire	-11.6149
▁citoyenne	-11.6149
▁porteur	-11.615
VR	-11.615
Ra	-11.615
▁lapin	-11.615
▁bail	-11.6151
var	-11.6151
itude	-11.6152
▁Adobe	-11.6155
nome	-11.6157
▁Téléphone	-11.6159
▁wc	-11.616
▁Arrêt	-11.616
▁angles	-11.6161
▁Sab	-11.6161
▁inclure	-11.6161
▁Sarah	-11.6162
▁Education	-11.6164
▁positionnement	-11.6165
▁illicite	-11.6166
▁certifiée	-11.6166
add	-11.6166
▁accept	-11.6171
▁modernité	-11.6176
▁segment	-11.6176
impl	-11.6176
▁indications	-11.6177
HE	-11.6178
▁cite	-11.6179
▁varient	-11.6179
▁désinscrire	-11.6179
▁imposer	-11.6179
ñ	-11.6179
kk	-11.618
▁phénomènes	-11.6181
▁leçon	-11.6181
▁maux	-11.6184
▁vendue	-11.6184
▁reproduit	-11.6185
arret	-11.6185
ambo	-11.6186
▁philosophique	-11.6186
▁Éditions	-11.6187
ANC	-11.6187
▁manquant	-11.619
▁densité	-11.6191
▁citations	-11.6191
▁douane	-11.6194
▁Vive	-11.6195
▁exact	-11.6197
▁descendant	-11.6197
▁révolte	-11.6197
▁visé	-11.6198
last	-11.6198
▁coul	-11.6198
▁foire	-11.6198
▁COMP	-11.6199
▁marquant	-11.6199
▁rapidité	-11.6201
▁1988	-11.6202
/09/	-11.6204
arn	-11.6204
INS	-11.6204
▁concentrer	-11.6206
▁grandir	-11.6206
▁Architecture	-11.6206
▁enveloppe	-11.6207
▁fixes	-11.6207
▁descendre	-11.621
▁clichés	-11.621
▁Gold	-11.621
▁délicat	-11.6211
▁Moteur	-11.6212
▁Noire	-11.6212
odeur	-11.6213
▁formats	-11.6214
ape	-11.6214
▁obstacles	-11.6216
▁restait	-11.6218
▁Canapé	-11.6219
apparence	-11.6219
Hu	-11.622
▁Energie	-11.6221
than	-11.6221
▁autrui	-11.6221
▁africains	-11.6224
▁Box	-11.6226
▁mystérieuse	-11.6226
Marne	-11.6226
▁guerres	-11.6228
▁occuper	-11.6229
quat	-11.6229
▁Lang	-11.623
▁chargés	-11.6231
▁blessés	-11.6231
▁autorisés	-11.6232
▁inspirée	-11.6232
registr	-11.6232
ONE	-11.6233
▁chouette	-11.6233
▁barbecue	-11.6233
▁Savoie	-11.6234
OG	-11.6234
▁Caroline	-11.6235
▁combler	-11.6235
iaux	-11.6235
▁chroniques	-11.6238
▁résiste	-11.6238
Autorité	-11.6239
NS	-11.624
▁écrivant	-11.624
vy	-11.6241
▁360	-11.6242
▁lavage	-11.6244
▁libertine	-11.6245
oscope	-11.6248
INT	-11.6248
▁Savoir	-11.6252
▁Roumanie	-11.6254
▁hotel	-11.6255
▁Imp	-11.6256
▁Rob	-11.6257
important	-11.6258
▁Charente	-11.6258
▁spéc	-11.6262
▁verticale	-11.6265
avril	-11.6266
▁Partenaires	-11.6266
▁Début	-11.6267
rès	-11.6269
▁manuscrit	-11.6269
▁régulation	-11.627
▁intéresser	-11.6272
▁vitrine	-11.6273
anduz	-11.6276
▁Birchbox	-11.6276
▁flexible	-11.6276
▁deviendra	-11.6276
▁croyant	-11.6276
▁Kim	-11.6277
▁Jeanne	-11.6278
▁Champs	-11.6278
tru	-11.6281
▁tag	-11.6282
FC	-11.6284
▁intelligente	-11.6284
inage	-11.6285
▁constant	-11.6287
▁interroge	-11.6288
guin	-11.6288
▁rebond	-11.629
▁allié	-11.6291
▁Mol	-11.6291
▁corde	-11.6293
▁optimal	-11.6293
▁motivé	-11.6294
utilité	-11.6294
▁gastronomie	-11.6295
py	-11.6295
olf	-11.6296
tox	-11.6296
péri	-11.6297
▁déposées	-11.6298
▁débarrasser	-11.6298
ducteur	-11.6299
pied	-11.6301
▁Films	-11.6301
épaisseur	-11.6302
▁désirs	-11.6303
▁Gou	-11.6303
▁intégral	-11.6304
▁spot	-11.6307
▁Abonnez	-11.6309
▁JE	-11.6311
▁?"	-11.6311
▁remporte	-11.6311
▁pilier	-11.6314
ibi	-11.6315
travail	-11.6318
▁blind	-11.6322
▁dentelle	-11.6322
▁factures	-11.6323
FP	-11.6324
▁nutrition	-11.6325
▁Pot	-11.6326
▁clou	-11.6327
▁aveugle	-11.6327
▁mignon	-11.6327
▁Real	-11.6328
▁détendre	-11.6329
▁baptême	-11.633
▁Promotion	-11.633
▁Edition	-11.633
▁lingerie	-11.6333
▁RÉ	-11.6333
To	-11.6333
entrepreneur	-11.6334
▁Matt	-11.6334
▁devrais	-11.6334
▁récupéré	-11.6334
▁particules	-11.6334
LY	-11.6334
▁sapin	-11.6337
inématographique	-11.6338
~	-11.6339
▁solaires	-11.634
▁immobilières	-11.6341
▁industrie	-11.6341
▁municipale	-11.6341
▁conclure	-11.6341
annonces	-11.6341
div	-11.6342
▁regrette	-11.6345
▁Thaïlande	-11.6345
▁touchant	-11.6345
max	-11.6346
▁Aff	-11.6346
indique	-11.6348
▁livrée	-11.6349
matiques	-11.6349
première	-11.6352
▁rachat	-11.6354
iere	-11.6354
instar	-11.6355
▁réservations	-11.6356
▁él	-11.6359
н	-11.6359
fon	-11.636
▁sérieuses	-11.636
2006	-11.6361
▁logos	-11.6362
▁souverain	-11.6363
▁anonymes	-11.6364
▁Mieux	-11.6364
code	-11.6364
▁prot	-11.6365
▁Roll	-11.6365
!!!!	-11.6368
▁éphémère	-11.637
▁lâche	-11.6371
▁jette	-11.6371
Elle	-11.6374
▁discrète	-11.6376
▁gluten	-11.6377
▁Ken	-11.6378
▁systématique	-11.6378
▁actrice	-11.6378
amuse	-11.6379
▁1/2	-11.638
ordi	-11.638
▁luminaire	-11.6381
▁réservoir	-11.6382
▁Zi	-11.6383
▁envoyés	-11.6383
IEN	-11.6385
▁newsletters	-11.6386
othérapie	-11.6386
EUX	-11.6388
▁violente	-11.6388
▁Cadeaux	-11.639
▁cathédrale	-11.6392
▁déni	-11.6393
▁Pacifique	-11.6396
/11/2014	-11.6396
fection	-11.6396
▁destinations	-11.6399
▁peaux	-11.6401
embauche	-11.6401
▁cartouche	-11.6403
▁Finance	-11.6404
▁stop	-11.6404
▁semelle	-11.6405
vocation	-11.6407
xw	-11.6408
▁Être	-11.641
▁enquêtes	-11.6411
▁syndicale	-11.6411
▁expérimenté	-11.6412
▁arguments	-11.6412
▁grandeur	-11.6412
appliquent	-11.6416
▁Ayant	-11.6418
▁Maur	-11.6418
▁banal	-11.6419
exe	-11.6419
SH	-11.642
▁suffi	-11.642
orge	-11.6421
▁canne	-11.6424
▁réserves	-11.6425
optimiser	-11.6425
▁orientation	-11.6426
onnant	-11.6426
▁migration	-11.6428
▁demandant	-11.6429
▁marocain	-11.6429
▁Située	-11.6429
▁Premium	-11.6432
▁cinquante	-11.6432
▁assurances	-11.6432
▁repli	-11.6433
▁posée	-11.6435
▁DÃ	-11.6436
compte	-11.6437
odor	-11.6437
▁févr	-11.6438
▁familiales	-11.6439
▁aborder	-11.644
▁nés	-11.644
▁distributeur	-11.6445
▁ko	-11.6447
▁leçons	-11.6448
▁converti	-11.6451
euro	-11.6451
UI	-11.6451
▁manteau	-11.6452
▁Will	-11.6453
▁Territoire	-11.6454
▁préférable	-11.6454
▁chaudes	-11.6459
ologues	-11.6459
▁fouille	-11.6461
▁québécois	-11.6462
août	-11.6462
▁obscur	-11.6462
apprenti	-11.6462
▁Rechercher	-11.6463
éveil	-11.6463
spira	-11.6465
▁lourds	-11.6465
▁inconscient	-11.6465
▁rapprocher	-11.6468
▁périodique	-11.6469
Ô	-11.6469
plication	-11.6469
▁parois	-11.6471
▁traduire	-11.6473
hom	-11.6473
illons	-11.6474
▁Mich	-11.6476
▁ferroviaire	-11.6476
onyme	-11.6476
paration	-11.6477
▁donn	-11.6478
Sur	-11.648
▁opportunité	-11.648
▁débutant	-11.6481
URE	-11.6482
èbre	-11.6483
▁parcelle	-11.6483
▁illustré	-11.6484
▁versement	-11.6487
▁dira	-11.6488
........	-11.6489
▁Rev	-11.649
▁cordon	-11.649
▁militant	-11.649
▁Gay	-11.6493
Iran	-11.6494
égé	-11.6494
▁nuances	-11.6494
▁Finlande	-11.6495
▁Vent	-11.6495
▁Créez	-11.6497
▁sauve	-11.6499
▁extérieures	-11.65
▁Dictionnaire	-11.6501
asile	-11.6502
▁bronze	-11.6506
Comment	-11.6508
▁Uni	-11.6508
▁Traitement	-11.6509
▁Editions	-11.6511
▁Iran	-11.6512
aïque	-11.6513
ark	-11.6515
▁mouton	-11.6517
Océan	-11.6518
acier	-11.6519
▁Parfait	-11.652
▁plaine	-11.6521
thérapeute	-11.6522
▁87	-11.6522
▁transform	-11.6523
▁Niger	-11.6523
▁bouquet	-11.6525
▁play	-11.6525
sexuel	-11.6525
▁trouv	-11.6526
▁Cinq	-11.6527
▁acquise	-11.6528
ben	-11.6528
▁illégale	-11.6528
Г	-11.6531
▁clics	-11.6536
▁mettra	-11.6538
▁mineur	-11.6538
▁Recevez	-11.6539
▁rapproche	-11.654
étendre	-11.6541
beau	-11.6543
▁rédacteur	-11.6543
haut	-11.6543
ALL	-11.6543
▁ramener	-11.6544
▁Libye	-11.6546
▁Finances	-11.6546
▁véritablement	-11.6546
▁refer	-11.6547
▁PU	-11.6549
▁dense	-11.6549
▁contraint	-11.6554
jac	-11.6555
▁mentionner	-11.6556
bell	-11.6558
▁vaisselle	-11.656
▁locataire	-11.656
▁Hong	-11.6561
pid	-11.6561
▁fréquentes	-11.6563
▁volontaires	-11.6564
▁opposant	-11.6564
▁sentier	-11.6564
▁partition	-11.6565
habitants	-11.6566
dict	-11.6571
▁expédié	-11.6573
▁fixée	-11.6573
▁pleur	-11.6574
▁cristal	-11.6574
▁topic	-11.6574
▁Der	-11.6576
élever	-11.658
▁partant	-11.658
ION	-11.6581
ITÉ	-11.6584
Oise	-11.6585
▁crises	-11.6585
▁Unis	-11.6586
▁imposée	-11.6586
▁générosité	-11.6587
▁vinaigre	-11.6587
▁Sont	-11.6589
▁Mut	-11.6591
▁Jules	-11.6593
▁Bébé	-11.6595
▁romain	-11.6598
Ga	-11.6598
▁protestant	-11.6598
▁recensement	-11.6598
▁intéressés	-11.66
technique	-11.66
▁tenait	-11.66
▁(0	-11.6601
▁vignoble	-11.6602
▁serpent	-11.6602
bré	-11.6603
▁grotte	-11.6603
▁quantités	-11.6604
▁fantôme	-11.6605
appuyant	-11.6605
▁plonger	-11.6608
▁Gabon	-11.6609
▁séduction	-11.661
▁Pau	-11.661
▁enlevé	-11.6611
▁diplômé	-11.6611
dée	-11.6612
DM	-11.6612
▁emmène	-11.6613
thy	-11.6614
▁maîtresse	-11.6614
▁Connect	-11.6614
▁rubriques	-11.6616
odi	-11.6616
icône	-11.6616
▁Numérique	-11.6617
plu	-11.6617
▁réussie	-11.6619
experts	-11.6619
▁pull	-11.662
▁camarades	-11.662
▁vélos	-11.6621
ever	-11.6622
exercer	-11.6624
▁Conc	-11.6626
▁voudrait	-11.6626
▁set	-11.6626
exprime	-11.6626
▁Unies	-11.6627
▁Laval	-11.6628
▁Girl	-11.6628
plex	-11.6629
gmail	-11.6632
académie	-11.6635
▁comte	-11.6635
▁fusil	-11.6636
°5	-11.664
▁administratifs	-11.6641
▁ranger	-11.6642
App	-11.6643
authenticité	-11.6643
▁Seulement	-11.6644
▁parfums	-11.6646
SL	-11.6648
orama	-11.6649
▁put	-11.6651
▁fibres	-11.6655
apo	-11.6655
▁Reims	-11.6658
▁passionnant	-11.6659
▁termin	-11.666
amel	-11.666
▁XV	-11.6663
▁couverte	-11.6663
▁regardé	-11.6664
▁1978,	-11.6664
▁Mah	-11.6665
▁vivants	-11.6665
▁expressément	-11.6665
▁prestataire	-11.6668
▁commandant	-11.6669
▁feuillet	-11.6669
▁CAR	-11.6669
▁débuté	-11.6669
Prix	-11.667
▁précises	-11.6671
▁valoir	-11.6671
▁terroristes	-11.6674
▁habituelle	-11.6674
▁détention	-11.6675
▁dessiner	-11.6676
▁nôtre	-11.6677
▁capteur	-11.6678
▁revendique	-11.6681
Intérieur	-11.6682
▁partiel	-11.6682
▁échapper	-11.6682
▁???	-11.6682
rem	-11.6682
▁''	-11.6684
▁assurant	-11.6684
ssier	-11.6686
▁posséder	-11.6688
▁taches	-11.6689
▁prioritaire	-11.669
▁Physique	-11.6691
▁débutants	-11.6693
▁lavabo	-11.6695
▁superbes	-11.6695
▁créatrice	-11.6698
	-11.6699
▁préfet	-11.6699
▁connaissait	-11.6699
▁Gare	-11.6699
▁prévenu	-11.6702
▁comptabilité	-11.6703
▁requiert	-11.6703
▁travailleur	-11.6704
▁Contrat	-11.6704
agrément	-11.6704
▁anticip	-11.6706
▁déterminant	-11.6706
▁;-)	-11.6708
▁Dub	-11.671
▁mensuelle	-11.671
▁raccord	-11.6716
▁single	-11.6716
▁tubes	-11.6717
▁Escort	-11.6718
▁concentre	-11.6722
▁exécuté	-11.6723
▁dresse	-11.6723
▁Option	-11.6726
▁Pap	-11.6726
▁mètre	-11.6727
▁musicales	-11.6728
ennemi	-11.6731
moire	-11.6734
▁bloque	-11.6736
pée	-11.6738
▁promesses	-11.674
▁cosmétiques	-11.674
▁dynamiques	-11.6743
▁leaders	-11.6744
▁bâton	-11.6744
temp	-11.6744
▁défilé	-11.6745
▁chéri	-11.6746
▁Camping	-11.6748
▁Pay	-11.6748
CT	-11.675
dité	-11.6752
▁réglable	-11.6754
END	-11.6754
lux	-11.6755
neau	-11.6755
▁prophète	-11.6755
▁ref	-11.6756
acé	-11.6758
▁strat	-11.6759
riser	-11.676
wo	-11.6761
vaux	-11.6764
hydr	-11.6764
▁Enfant	-11.6766
▁bah	-11.6766
quipe	-11.6768
▁Unique	-11.6768
ailles	-11.6771
cembre	-11.6771
Vidéo	-11.6772
▁acheteurs	-11.6776
▁papillon	-11.6776
▁CLIENT	-11.6778
adolescence	-11.6778
abonner	-11.678
acide	-11.6782
▁pèse	-11.6784
élément	-11.6784
▁puni	-11.6786
/03/	-11.6786
oë	-11.6789
▁préalablement	-11.6791
forum	-11.6791
▁cliniques	-11.6793
étal	-11.6793
infirmier	-11.6794
▁ongles	-11.6794
▁innovation	-11.6795
rè	-11.6797
▁vieilli	-11.6798
▁rejeté	-11.6798
▁Bah	-11.6798
limin	-11.6799
▁renovation	-11.6801
▁CGV	-11.6801
watch	-11.6802
▁atout	-11.6804
jection	-11.6806
gno	-11.6806
▁Couture	-11.6807
▁Amis	-11.681
Bretagne	-11.681
neuse	-11.6811
▁monstre	-11.6812
▁légendaire	-11.6812
▁pathologie	-11.6812
alliance	-11.6812
▁agriculteurs	-11.6813
phi	-11.6813
▁Eaux	-11.6814
▁Caen	-11.6814
▁attribution	-11.6815
▁Boîte	-11.6816
▁OU	-11.6817
appeler	-11.6818
hl	-11.6818
chaîne	-11.6819
▁cruel	-11.682
▁maternité	-11.682
▁Taux	-11.682
▁lauréat	-11.6824
▁tempête	-11.6824
▁alinéa	-11.6825
▁(11	-11.6826
CG	-11.6827
▁copains	-11.6828
▁Pierres	-11.6829
▁informons	-11.683
▁passait	-11.6831
atta	-11.6831
VO	-11.6832
▁délit	-11.6833
▁blocs	-11.6836
igna	-11.6838
▁arrivant	-11.6838
▁menus	-11.684
▁réelles	-11.684
▁1500	-11.6841
▁hypothétique	-11.6842
▁répété	-11.6842
▁Togo	-11.6843
▁cherché	-11.6844
roux	-11.6845
▁Balance	-11.6847
▁innovations	-11.6847
▁détermine	-11.6848
▁sachez	-11.6848
▁retrouv	-11.685
▁back	-11.685
▁quarante	-11.685
▁indemnité	-11.6853
▁FL	-11.6853
▁légitimes	-11.6853
▁Airbnb	-11.6854
▁scrutin	-11.6854
Cor	-11.6855
▁confier	-11.6857
▁reçoivent	-11.6858
▁Tableau	-11.6859
▁(33)	-11.6859
▁we	-11.6859
audit	-11.686
▁renforcé	-11.686
▁Sels	-11.6861
▁Portrait	-11.6861
▁protecteur	-11.6862
gres	-11.6862
▁Somme	-11.6864
▁champions	-11.6865
▁renouvelé	-11.6866
▁Gé	-11.6866
BS	-11.6867
decin	-11.6867
▁arrivés	-11.6869
pend	-11.6874
▁Sho	-11.6877
OX	-11.6877
▁adapt	-11.6878
iÃ	-11.6879
▁arr	-11.6879
Île	-11.6881
▁copier	-11.6882
▁joints	-11.6882
test	-11.6883
▁audit	-11.6884
aimerai	-11.6887
UV	-11.6888
▁axes	-11.689
00)	-11.6891
donner	-11.6891
▁Lorraine	-11.6891
▁fabriqués	-11.6893
Seine	-11.6895
obs	-11.6895
petits	-11.6898
▁maxi	-11.6898
mark	-11.6899
▁compatibles	-11.69
▁Lycée	-11.69
iron	-11.6901
amé	-11.6902
▁criminel	-11.6903
▁portraits	-11.6903
▁adressé	-11.6904
▁résidents	-11.6905
▁aliment	-11.6905
▁soie	-11.6905
▁spacieuse	-11.6908
▁Dos	-11.691
т	-11.6911
▁Mettre	-11.6913
▁livret	-11.6913
▁planches	-11.6913
▁porteurs	-11.6915
▁végétaux	-11.6915
▁Lausanne	-11.6915
▁propice	-11.6915
▁sections	-11.6917
▁more	-11.6917
▁admirer	-11.6919
▁évêque	-11.6921
[...]
